{
  "version": "1.0",
  "truncation": null,
  "padding": null,
  "added_tokens": [
    {
      "id": 0,
      "content": "〈|UNK|〉",
      "single_word": false,
      "lstrip": false,
      "rstrip": false,
      "normalized": false,
      "special": true
    },
    {
      "id": 1,
      "content": "〈|CODE_START|〉",
      "single_word": false,
      "lstrip": false,
      "rstrip": false,
      "normalized": false,
      "special": true
    },
    {
      "id": 2,
      "content": "〈|EOS|〉",
      "single_word": false,
      "lstrip": false,
      "rstrip": false,
      "normalized": false,
      "special": true
    },
    {
      "id": 3,
      "content": "〈|CODE_END|〉",
      "single_word": false,
      "lstrip": false,
      "rstrip": false,
      "normalized": false,
      "special": true
    },
    {
      "id": 4,
      "content": "〈|META_START|〉",
      "single_word": false,
      "lstrip": false,
      "rstrip": false,
      "normalized": false,
      "special": true
    },
    {
      "id": 5,
      "content": "〈|META_END|〉",
      "single_word": false,
      "lstrip": false,
      "rstrip": false,
      "normalized": false,
      "special": true
    },
    {
      "id": 6,
      "content": "〈|FIM_MIDDLE|〉",
      "single_word": false,
      "lstrip": false,
      "rstrip": false,
      "normalized": false,
      "special": true
    },
    {
      "id": 7,
      "content": "〈|FIM_SUFFIX|〉",
      "single_word": false,
      "lstrip": false,
      "rstrip": false,
      "normalized": false,
      "special": true
    },
    {
      "id": 8,
      "content": "〈|SEP|〉",
      "single_word": false,
      "lstrip": false,
      "rstrip": false,
      "normalized": false,
      "special": true
    },
    {
      "id": 9,
      "content": "〈|PAD|〉",
      "single_word": false,
      "lstrip": false,
      "rstrip": false,
      "normalized": false,
      "special": true
    },
    {
      "id": 10,
      "content": "〈|CLS|〉",
      "single_word": false,
      "lstrip": false,
      "rstrip": false,
      "normalized": false,
      "special": true
    },
    {
      "id": 11,
      "content": "〈|FIM_START|〉",
      "single_word": false,
      "lstrip": false,
      "rstrip": false,
      "normalized": false,
      "special": true
    },
    {
      "id": 12,
      "content": "〈|MASK|〉",
      "single_word": false,
      "lstrip": false,
      "rstrip": false,
      "normalized": false,
      "special": true
    },
    {
      "id": 13,
      "content": "|◊|",
      "single_word": false,
      "lstrip": false,
      "rstrip": false,
      "normalized": false,
      "special": true
    },
    {
      "id": 14,
      "content": "〈|",
      "single_word": false,
      "lstrip": false,
      "rstrip": false,
      "normalized": false,
      "special": true
    },
    {
      "id": 15,
      "content": "|〉",
      "single_word": false,
      "lstrip": false,
      "rstrip": false,
      "normalized": false,
      "special": true
    },
    {
      "id": 16,
      "content": "〈|/",
      "single_word": false,
      "lstrip": false,
      "rstrip": false,
      "normalized": false,
      "special": true
    },
    {
      "id": 17,
      "content": "/|〉",
      "single_word": false,
      "lstrip": false,
      "rstrip": false,
      "normalized": false,
      "special": true
    },
    {
      "id": 18,
      "content": "<think>",
      "single_word": false,
      "lstrip": false,
      "rstrip": false,
      "normalized": false,
      "special": false
    },
    {
      "id": 19,
      "content": "</think>",
      "single_word": false,
      "lstrip": false,
      "rstrip": false,
      "normalized": false,
      "special": false
    },
    {
      "id": 20,
      "content": "〈|SPECIAL_1|〉",
      "single_word": false,
      "lstrip": false,
      "rstrip": false,
      "normalized": false,
      "special": true
    },
    {
      "id": 21,
      "content": "〈|SPECIAL_2|〉",
      "single_word": false,
      "lstrip": false,
      "rstrip": false,
      "normalized": false,
      "special": true
    },
    {
      "id": 22,
      "content": "〈|SPECIAL_3|〉",
      "single_word": false,
      "lstrip": false,
      "rstrip": false,
      "normalized": false,
      "special": true
    },
    {
      "id": 23,
      "content": "<assistant>",
      "single_word": false,
      "lstrip": false,
      "rstrip": false,
      "normalized": false,
      "special": false
    },
    {
      "id": 24,
      "content": "</assistant>",
      "single_word": false,
      "lstrip": false,
      "rstrip": false,
      "normalized": false,
      "special": false
    },
    {
      "id": 25,
      "content": "<tool_call>",
      "single_word": false,
      "lstrip": false,
      "rstrip": false,
      "normalized": false,
      "special": false
    },
    {
      "id": 26,
      "content": "</tool_call>",
      "single_word": false,
      "lstrip": false,
      "rstrip": false,
      "normalized": false,
      "special": false
    },
    {
      "id": 27,
      "content": "〈|SPECIAL_8|〉",
      "single_word": false,
      "lstrip": false,
      "rstrip": false,
      "normalized": false,
      "special": true
    },
    {
      "id": 28,
      "content": "〈|SPECIAL_9|〉",
      "single_word": false,
      "lstrip": false,
      "rstrip": false,
      "normalized": false,
      "special": true
    },
    {
      "id": 29,
      "content": "〈|SPECIAL_10|〉",
      "single_word": false,
      "lstrip": false,
      "rstrip": false,
      "normalized": false,
      "special": true
    },
    {
      "id": 30,
      "content": "〈|SPECIAL_11|〉",
      "single_word": false,
      "lstrip": false,
      "rstrip": false,
      "normalized": false,
      "special": true
    },
    {
      "id": 31,
      "content": "〈|SPECIAL_12|〉",
      "single_word": false,
      "lstrip": false,
      "rstrip": false,
      "normalized": false,
      "special": true
    },
    {
      "id": 32,
      "content": "〈|SPECIAL_13|〉",
      "single_word": false,
      "lstrip": false,
      "rstrip": false,
      "normalized": false,
      "special": true
    },
    {
      "id": 33,
      "content": "〈|SPECIAL_14|〉",
      "single_word": false,
      "lstrip": false,
      "rstrip": false,
      "normalized": false,
      "special": true
    },
    {
      "id": 34,
      "content": "〈|SPECIAL_15|〉",
      "single_word": false,
      "lstrip": false,
      "rstrip": false,
      "normalized": false,
      "special": true
    },
    {
      "id": 35,
      "content": "〈|SPECIAL_16|〉",
      "single_word": false,
      "lstrip": false,
      "rstrip": false,
      "normalized": false,
      "special": true
    },
    {
      "id": 36,
      "content": "〈|SPECIAL_17|〉",
      "single_word": false,
      "lstrip": false,
      "rstrip": false,
      "normalized": false,
      "special": true
    },
    {
      "id": 37,
      "content": "〈|SPECIAL_18|〉",
      "single_word": false,
      "lstrip": false,
      "rstrip": false,
      "normalized": false,
      "special": true
    },
    {
      "id": 38,
      "content": "〈|SPECIAL_19|〉",
      "single_word": false,
      "lstrip": false,
      "rstrip": false,
      "normalized": false,
      "special": true
    },
    {
      "id": 39,
      "content": "〈|SPECIAL_20|〉",
      "single_word": false,
      "lstrip": false,
      "rstrip": false,
      "normalized": false,
      "special": true
    },
    {
      "id": 40,
      "content": "〈|SPECIAL_21|〉",
      "single_word": false,
      "lstrip": false,
      "rstrip": false,
      "normalized": false,
      "special": true
    },
    {
      "id": 41,
      "content": "〈|SPECIAL_22|〉",
      "single_word": false,
      "lstrip": false,
      "rstrip": false,
      "normalized": false,
      "special": true
    },
    {
      "id": 42,
      "content": "〈|SPECIAL_23|〉",
      "single_word": false,
      "lstrip": false,
      "rstrip": false,
      "normalized": false,
      "special": true
    },
    {
      "id": 43,
      "content": "〈|SPECIAL_24|〉",
      "single_word": false,
      "lstrip": false,
      "rstrip": false,
      "normalized": false,
      "special": true
    },
    {
      "id": 44,
      "content": "〈|SPECIAL_25|〉",
      "single_word": false,
      "lstrip": false,
      "rstrip": false,
      "normalized": false,
      "special": true
    },
    {
      "id": 45,
      "content": "〈|SPECIAL_26|〉",
      "single_word": false,
      "lstrip": false,
      "rstrip": false,
      "normalized": false,
      "special": true
    },
    {
      "id": 46,
      "content": "〈|SPECIAL_27|〉",
      "single_word": false,
      "lstrip": false,
      "rstrip": false,
      "normalized": false,
      "special": true
    },
    {
      "id": 47,
      "content": "〈|SPECIAL_28|〉",
      "single_word": false,
      "lstrip": false,
      "rstrip": false,
      "normalized": false,
      "special": true
    },
    {
      "id": 48,
      "content": "〈|SPECIAL_29|〉",
      "single_word": false,
      "lstrip": false,
      "rstrip": false,
      "normalized": false,
      "special": true
    },
    {
      "id": 49,
      "content": "〈|SPECIAL_30|〉",
      "single_word": false,
      "lstrip": false,
      "rstrip": false,
      "normalized": false,
      "special": true
    },
    {
      "id": 50,
      "content": "〈|SPECIAL_31|〉",
      "single_word": false,
      "lstrip": false,
      "rstrip": false,
      "normalized": false,
      "special": true
    },
    {
      "id": 51,
      "content": "〈|SPECIAL_32|〉",
      "single_word": false,
      "lstrip": false,
      "rstrip": false,
      "normalized": false,
      "special": true
    },
    {
      "id": 52,
      "content": "〈|SPECIAL_33|〉",
      "single_word": false,
      "lstrip": false,
      "rstrip": false,
      "normalized": false,
      "special": true
    },
    {
      "id": 53,
      "content": "〈|SPECIAL_34|〉",
      "single_word": false,
      "lstrip": false,
      "rstrip": false,
      "normalized": false,
      "special": true
    },
    {
      "id": 54,
      "content": "〈|SPECIAL_35|〉",
      "single_word": false,
      "lstrip": false,
      "rstrip": false,
      "normalized": false,
      "special": true
    },
    {
      "id": 55,
      "content": "〈|SPECIAL_36|〉",
      "single_word": false,
      "lstrip": false,
      "rstrip": false,
      "normalized": false,
      "special": true
    },
    {
      "id": 56,
      "content": "〈|SPECIAL_37|〉",
      "single_word": false,
      "lstrip": false,
      "rstrip": false,
      "normalized": false,
      "special": true
    },
    {
      "id": 57,
      "content": "〈|SPECIAL_38|〉",
      "single_word": false,
      "lstrip": false,
      "rstrip": false,
      "normalized": false,
      "special": true
    },
    {
      "id": 58,
      "content": "〈|SPECIAL_39|〉",
      "single_word": false,
      "lstrip": false,
      "rstrip": false,
      "normalized": false,
      "special": true
    },
    {
      "id": 59,
      "content": "〈|SPECIAL_40|〉",
      "single_word": false,
      "lstrip": false,
      "rstrip": false,
      "normalized": false,
      "special": true
    },
    {
      "id": 60,
      "content": "〈|SPECIAL_41|〉",
      "single_word": false,
      "lstrip": false,
      "rstrip": false,
      "normalized": false,
      "special": true
    },
    {
      "id": 61,
      "content": "〈|SPECIAL_42|〉",
      "single_word": false,
      "lstrip": false,
      "rstrip": false,
      "normalized": false,
      "special": true
    },
    {
      "id": 62,
      "content": "〈|SPECIAL_43|〉",
      "single_word": false,
      "lstrip": false,
      "rstrip": false,
      "normalized": false,
      "special": true
    },
    {
      "id": 63,
      "content": "〈|SPECIAL_44|〉",
      "single_word": false,
      "lstrip": false,
      "rstrip": false,
      "normalized": false,
      "special": true
    },
    {
      "id": 64,
      "content": "〈|SPECIAL_45|〉",
      "single_word": false,
      "lstrip": false,
      "rstrip": false,
      "normalized": false,
      "special": true
    },
    {
      "id": 65,
      "content": "〈|SPECIAL_46|〉",
      "single_word": false,
      "lstrip": false,
      "rstrip": false,
      "normalized": false,
      "special": true
    },
    {
      "id": 66,
      "content": "〈|SPECIAL_47|〉",
      "single_word": false,
      "lstrip": false,
      "rstrip": false,
      "normalized": false,
      "special": true
    },
    {
      "id": 67,
      "content": "〈|SPECIAL_48|〉",
      "single_word": false,
      "lstrip": false,
      "rstrip": false,
      "normalized": false,
      "special": true
    },
    {
      "id": 68,
      "content": "〈|SPECIAL_49|〉",
      "single_word": false,
      "lstrip": false,
      "rstrip": false,
      "normalized": false,
      "special": true
    },
    {
      "id": 69,
      "content": "〈|SPECIAL_50|〉",
      "single_word": false,
      "lstrip": false,
      "rstrip": false,
      "normalized": false,
      "special": true
    }
  ],
  "normalizer": null,
  "pre_tokenizer": {
    "type": "Sequence",
    "pretokenizers": [
      {
        "type": "Split",
        "pattern": {
          "Regex": "(?:\\r?\\n)+(?!\\r?\\n)"
        },
        "behavior": "MergedWithNext",
        "invert": false
      },
      {
        "type": "Split",
        "pattern": {
          "Regex": "(?i:'s|'t|'re|'ve|'m|'ll|'d)|[^\\r\\n\\p{L}\\p{N}]?\\p{L}+|\\p{N}| ?[^\\s\\p{L}\\p{N}]+[\\r\\n]*|\\s*[\\r\\n]+|\\s+(?!\\S)|\\s+"
        },
        "behavior": "Isolated",
        "invert": false
      },
      {
        "type": "ByteLevel",
        "add_prefix_space": false,
        "trim_offsets": true,
        "use_regex": false
      }
    ]
  },
  "post_processor": {
    "type": "TemplateProcessing",
    "single": [
      {
        "SpecialToken": {
          "id": "〈|EOS|〉",
          "type_id": 0
        }
      },
      {
        "Sequence": {
          "id": "A",
          "type_id": 0
        }
      }
    ],
    "pair": [
      {
        "SpecialToken": {
          "id": "〈|EOS|〉",
          "type_id": 0
        }
      },
      {
        "Sequence": {
          "id": "A",
          "type_id": 0
        }
      },
      {
        "SpecialToken": {
          "id": "〈|EOS|〉",
          "type_id": 0
        }
      },
      {
        "Sequence": {
          "id": "B",
          "type_id": 0
        }
      }
    ],
    "special_tokens": {
      "〈|EOS|〉": {
        "id": "〈|EOS|〉",
        "ids": [
          2
        ],
        "tokens": [
          "〈|EOS|〉"
        ]
      }
    }
  },
  "decoder": {
    "type": "ByteLevel",
    "add_prefix_space": true,
    "trim_offsets": true,
    "use_regex": true
  },
  "model": {
    "type": "BPE",
    "dropout": 0.0,
    "unk_token": "[UNK]",
    "continuing_subword_prefix": "",
    "end_of_word_suffix": "",
    "fuse_unk": false,
    "byte_fallback": false,
    "ignore_merges": false,
    "vocab": {
      "〈|UNK|〉": 0,
      "〈|CODE_START|〉": 1,
      "〈|EOS|〉": 2,
      "〈|CODE_END|〉": 3,
      "〈|META_START|〉": 4,
      "〈|META_END|〉": 5,
      "〈|FIM_MIDDLE|〉": 6,
      "〈|FIM_SUFFIX|〉": 7,
      "〈|SEP|〉": 8,
      "〈|PAD|〉": 9,
      "〈|CLS|〉": 10,
      "〈|FIM_START|〉": 11,
      "〈|MASK|〉": 12,
      "|◊|": 13,
      "〈|": 14,
      "|〉": 15,
      "〈|/": 16,
      "/|〉": 17,
      "〈|SPECIAL_1|〉": 20,
      "〈|SPECIAL_2|〉": 21,
      "〈|SPECIAL_3|〉": 22,
      "〈|SPECIAL_8|〉": 27,
      "〈|SPECIAL_9|〉": 28,
      "〈|SPECIAL_10|〉": 29,
      "〈|SPECIAL_11|〉": 30,
      "〈|SPECIAL_12|〉": 31,
      "〈|SPECIAL_13|〉": 32,
      "〈|SPECIAL_14|〉": 33,
      "〈|SPECIAL_15|〉": 34,
      "〈|SPECIAL_16|〉": 35,
      "〈|SPECIAL_17|〉": 36,
      "〈|SPECIAL_18|〉": 37,
      "〈|SPECIAL_19|〉": 38,
      "〈|SPECIAL_20|〉": 39,
      "〈|SPECIAL_21|〉": 40,
      "〈|SPECIAL_22|〉": 41,
      "〈|SPECIAL_23|〉": 42,
      "〈|SPECIAL_24|〉": 43,
      "〈|SPECIAL_25|〉": 44,
      "〈|SPECIAL_26|〉": 45,
      "〈|SPECIAL_27|〉": 46,
      "〈|SPECIAL_28|〉": 47,
      "〈|SPECIAL_29|〉": 48,
      "〈|SPECIAL_30|〉": 49,
      "〈|SPECIAL_31|〉": 50,
      "〈|SPECIAL_32|〉": 51,
      "〈|SPECIAL_33|〉": 52,
      "〈|SPECIAL_34|〉": 53,
      "〈|SPECIAL_35|〉": 54,
      "〈|SPECIAL_36|〉": 55,
      "〈|SPECIAL_37|〉": 56,
      "〈|SPECIAL_38|〉": 57,
      "〈|SPECIAL_39|〉": 58,
      "〈|SPECIAL_40|〉": 59,
      "〈|SPECIAL_41|〉": 60,
      "〈|SPECIAL_42|〉": 61,
      "〈|SPECIAL_43|〉": 62,
      "〈|SPECIAL_44|〉": 63,
      "〈|SPECIAL_45|〉": 64,
      "〈|SPECIAL_46|〉": 65,
      "〈|SPECIAL_47|〉": 66,
      "〈|SPECIAL_48|〉": 67,
      "〈|SPECIAL_49|〉": 68,
      "〈|SPECIAL_50|〉": 69,
      "!": 70,
      "\"": 71,
      "#": 72,
      "$": 73,
      "%": 74,
      "&": 75,
      "'": 76,
      "(": 77,
      ")": 78,
      "*": 79,
      "+": 80,
      ",": 81,
      "-": 82,
      ".": 83,
      "/": 84,
      "0": 85,
      "1": 86,
      "2": 87,
      "3": 88,
      "4": 89,
      "5": 90,
      "6": 91,
      "7": 92,
      "8": 93,
      "9": 94,
      ":": 95,
      ";": 96,
      "<": 97,
      "=": 98,
      ">": 99,
      "?": 100,
      "@": 101,
      "A": 102,
      "B": 103,
      "C": 104,
      "D": 105,
      "E": 106,
      "F": 107,
      "G": 108,
      "H": 109,
      "I": 110,
      "J": 111,
      "K": 112,
      "L": 113,
      "M": 114,
      "N": 115,
      "O": 116,
      "P": 117,
      "Q": 118,
      "R": 119,
      "S": 120,
      "T": 121,
      "U": 122,
      "V": 123,
      "W": 124,
      "X": 125,
      "Y": 126,
      "Z": 127,
      "[": 128,
      "\\": 129,
      "]": 130,
      "^": 131,
      "_": 132,
      "`": 133,
      "a": 134,
      "b": 135,
      "c": 136,
      "d": 137,
      "e": 138,
      "f": 139,
      "g": 140,
      "h": 141,
      "i": 142,
      "j": 143,
      "k": 144,
      "l": 145,
      "m": 146,
      "n": 147,
      "o": 148,
      "p": 149,
      "q": 150,
      "r": 151,
      "s": 152,
      "t": 153,
      "u": 154,
      "v": 155,
      "w": 156,
      "x": 157,
      "y": 158,
      "z": 159,
      "{": 160,
      "|": 161,
      "}": 162,
      "~": 163,
      "¡": 164,
      "¢": 165,
      "£": 166,
      "¤": 167,
      "¥": 168,
      "¦": 169,
      "§": 170,
      "¨": 171,
      "©": 172,
      "ª": 173,
      "«": 174,
      "¬": 175,
      "®": 176,
      "¯": 177,
      "°": 178,
      "±": 179,
      "²": 180,
      "³": 181,
      "´": 182,
      "µ": 183,
      "¶": 184,
      "·": 185,
      "¸": 186,
      "¹": 187,
      "º": 188,
      "»": 189,
      "¼": 190,
      "½": 191,
      "¾": 192,
      "¿": 193,
      "À": 194,
      "Á": 195,
      "Â": 196,
      "Ã": 197,
      "Ä": 198,
      "Å": 199,
      "Æ": 200,
      "Ç": 201,
      "È": 202,
      "É": 203,
      "Ê": 204,
      "Ë": 205,
      "Ì": 206,
      "Í": 207,
      "Î": 208,
      "Ï": 209,
      "Ð": 210,
      "Ñ": 211,
      "Ò": 212,
      "Ó": 213,
      "Ô": 214,
      "Õ": 215,
      "Ö": 216,
      "×": 217,
      "Ø": 218,
      "Ù": 219,
      "Ú": 220,
      "Û": 221,
      "Ü": 222,
      "Ý": 223,
      "Þ": 224,
      "ß": 225,
      "à": 226,
      "á": 227,
      "â": 228,
      "ã": 229,
      "ä": 230,
      "å": 231,
      "æ": 232,
      "ç": 233,
      "è": 234,
      "é": 235,
      "ê": 236,
      "ë": 237,
      "ì": 238,
      "í": 239,
      "î": 240,
      "ï": 241,
      "ð": 242,
      "ñ": 243,
      "ò": 244,
      "ó": 245,
      "ô": 246,
      "õ": 247,
      "ö": 248,
      "÷": 249,
      "ø": 250,
      "ù": 251,
      "ú": 252,
      "û": 253,
      "ü": 254,
      "ý": 255,
      "þ": 256,
      "ÿ": 257,
      "Ā": 258,
      "ā": 259,
      "Ă": 260,
      "ă": 261,
      "Ą": 262,
      "ą": 263,
      "Ć": 264,
      "ć": 265,
      "Ĉ": 266,
      "ĉ": 267,
      "Ċ": 268,
      "ċ": 269,
      "Č": 270,
      "č": 271,
      "Ď": 272,
      "ď": 273,
      "Đ": 274,
      "đ": 275,
      "Ē": 276,
      "ē": 277,
      "Ĕ": 278,
      "ĕ": 279,
      "Ė": 280,
      "ė": 281,
      "Ę": 282,
      "ę": 283,
      "Ě": 284,
      "ě": 285,
      "Ĝ": 286,
      "ĝ": 287,
      "Ğ": 288,
      "ğ": 289,
      "Ġ": 290,
      "ġ": 291,
      "Ģ": 292,
      "ģ": 293,
      "Ĥ": 294,
      "ĥ": 295,
      "Ħ": 296,
      "ħ": 297,
      "Ĩ": 298,
      "ĩ": 299,
      "Ī": 300,
      "ī": 301,
      "Ĭ": 302,
      "ĭ": 303,
      "Į": 304,
      "į": 305,
      "İ": 306,
      "ı": 307,
      "Ĳ": 308,
      "ĳ": 309,
      "Ĵ": 310,
      "ĵ": 311,
      "Ķ": 312,
      "ķ": 313,
      "ĸ": 314,
      "Ĺ": 315,
      "ĺ": 316,
      "Ļ": 317,
      "ļ": 318,
      "Ľ": 319,
      "ľ": 320,
      "Ŀ": 321,
      "ŀ": 322,
      "Ł": 323,
      "ł": 324,
      "Ń": 325,
      "in": 326,
      "Ġt": 327,
      "ĠĠ": 328,
      "er": 329,
      "Ġa": 330,
      "on": 331,
      "re": 332,
      "at": 333,
      "he": 334,
      "or": 335,
      "en": 336,
      "es": 337,
      "Ġs": 338,
      "Ġc": 339,
      "Ġthe": 340,
      "ĠĠĠ": 341,
      "it": 342,
      "ing": 343,
      "an": 344,
      "is": 345,
      "le": 346,
      "ion": 347,
      "al": 348,
      "Ġf": 349,
      "ĊĊ": 350,
      "Ġp": 351,
      "ar": 352,
      "ou": 353,
      "ed": 354,
      "**": 355,
      "ic": 356,
      "Ġw": 357,
      "Ġan": 358,
      "Ġd": 359,
      "Ġb": 360,
      "ro": 361,
      "Ġm": 362,
      "ĠĠĠĠĠ": 363,
      "Ġo": 364,
      "Ġin": 365,
      "ct": 366,
      "Ġto": 367,
      "st": 368,
      "et": 369,
      "ĠĠĠĠĠĠĠ": 370,
      "ent": 371,
      "Ġand": 372,
      "as": 373,
      "Ġre": 374,
      "om": 375,
      "Ġn": 376,
      "Ġof": 377,
      "##": 378,
      "im": 379,
      "el": 380,
      "am": 381,
      "Ġth": 382,
      "il": 383,
      "Ġ=": 384,
      "id": 385,
      "us": 386,
      "ation": 387,
      "Ġl": 388,
      "Ġe": 389,
      "ut": 390,
      "ac": 391,
      "ĠT": 392,
      "ĠS": 393,
      "ol": 394,
      "Ġis": 395,
      "ig": 396,
      "ĠI": 397,
      "ĠĠĠĠĠĠĠĠĠ": 398,
      "Ġh": 399,
      "--": 400,
      "od": 401,
      "ot": 402,
      "ĠĠĠĠĠĠĠĠĠĠĠ": 403,
      "Ġ(": 404,
      "Ġfor": 405,
      "if": 406,
      "ĠC": 407,
      "ow": 408,
      "ad": 409,
      "ĠA": 410,
      "ur": 411,
      "ag": 412,
      "iv": 413,
      "ul": 414,
      "un": 415,
      "em": 416,
      "ate": 417,
      "ce": 418,
      "Ġ-": 419,
      "ch": 420,
      "ĉĉ": 421,
      "Ġv": 422,
      "Ġst": 423,
      "ab": 424,
      "se": 425,
      "Ġg": 426,
      "um": 427,
      "ly": 428,
      ");": 429,
      "Ġ`": 430,
      "pt": 431,
      "Ġy": 432,
      "Ġcon": 433,
      "qu": 434,
      "ers": 435,
      "ith": 436,
      "ĠP": 437,
      "ay": 438,
      "Ġ{": 439,
      "est": 440,
      "ect": 441,
      "Ġus": 442,
      "pp": 443,
      "Ġ\"": 444,
      "Ġbe": 445,
      "Ġon": 446,
      "Ġ**": 447,
      "ĠM": 448,
      "ter": 449,
      "Ġpro": 450,
      "th": 451,
      "``": 452,
      "Ġyou": 453,
      "ex": 454,
      "ec": 455,
      "ess": 456,
      "ist": 457,
      "Ġ<": 458,
      "ĠD": 459,
      "ver": 460,
      "ĠĠĠĠĠĠĠĠĠĠĠĠĠ": 461,
      "Ġthat": 462,
      "av": 463,
      "//": 464,
      "ht": 465,
      "Ġwith": 466,
      "ri": 467,
      "oc": 468,
      "res": 469,
      "ĠR": 470,
      "ĠĠĠĠĠĠĠĠĠĠĠĠĠĠĠ": 471,
      "Ġit": 472,
      "=\"": 473,
      "ĠF": 474,
      "ew": 475,
      "Ġcan": 476,
      "Ġex": 477,
      "ort": 478,
      "Ġ}": 479,
      "Ġ$": 480,
      "iz": 481,
      "ple": 482,
      "ass": 483,
      "ction": 484,
      "pl": 485,
      "Ġal": 486,
      "Ġcom": 487,
      "ir": 488,
      "čĊ": 489,
      "and": 490,
      "nt": 491,
      "age": 492,
      "Ġas": 493,
      "ĠE": 494,
      "ĠL": 495,
      "ain": 496,
      "ment": 497,
      "ĠB": 498,
      "ity": 499,
      "ke": 500,
      "ame": 501,
      "ue": 502,
      "ub": 503,
      "out": 504,
      "ata": 505,
      "end": 506,
      "Ġr": 507,
      "orm": 508,
      "Ġor": 509,
      "Ġde": 510,
      "Ġ\\": 511,
      "ap": 512,
      "Ġwh": 513,
      "ĠW": 514,
      "Ġare": 515,
      "os": 516,
      "ure": 517,
      "Ġcl": 518,
      "ore": 519,
      "op": 520,
      "----": 521,
      "ode": 522,
      "ack": 523,
      "ĠThe": 524,
      "Ġ*": 525,
      "rom": 526,
      "ile": 527,
      "ĠH": 528,
      "tr": 529,
      "int": 530,
      "og": 531,
      "</": 532,
      "nd": 533,
      "able": 534,
      "####": 535,
      ":**": 536,
      "lic": 537,
      "ult": 538,
      "ight": 539,
      "ĠN": 540,
      "ere": 541,
      "()": 542,
      "ĠG": 543,
      "ĠO": 544,
      "ext": 545,
      "ine": 546,
      "ive": 547,
      "art": 548,
      "form": 549,
      "ĠU": 550,
      "ies": 551,
      "ial": 552,
      "Ġ'": 553,
      "Ġthis": 554,
      "all": 555,
      "yp": 556,
      "ang": 557,
      "Ġif": 558,
      "ff": 559,
      "cl": 560,
      "act": 561,
      "ĠĠĠĠĠĠĠĠĠĠĠĠĠĠĠĠĠ": 562,
      "per": 563,
      "Ġtr": 564,
      "Ġby": 565,
      "ld": 566,
      "ind": 567,
      "urn": 568,
      "ud": 569,
      "our": 570,
      "Ġint": 571,
      "Ġnot": 572,
      "Ġen": 573,
      "..": 574,
      "ĠĠĠĠĠĠĠĠĠĠĠĠĠĠĠĠĠĠĠ": 575,
      "ust": 576,
      "Ġim": 577,
      "Ġfrom": 578,
      "ions": 579,
      "up": 580,
      "ant": 581,
      "Ġch": 582,
      "port": 583,
      "ont": 584,
      "Ġ+": 585,
      "\">": 586,
      "ork": 587,
      "ance": 588,
      "ib": 589,
      "Ġ[": 590,
      "are": 591,
      "ase": 592,
      "ath": 593,
      "ations": 594,
      "Ġclass": 595,
      "sp": 596,
      "com": 597,
      "ill": 598,
      "ime": 599,
      "ject": 600,
      "dd": 601,
      "ve": 602,
      "ire": 603,
      "'s": 604,
      "```": 605,
      "Ġat": 606,
      "turn": 607,
      "put": 608,
      "ĠTh": 609,
      "cess": 610,
      "ave": 611,
      "eg": 612,
      "Ġun": 613,
      "ign": 614,
      "Ġsu": 615,
      "ef": 616,
      "Ġle": 617,
      "Ġsh": 618,
      "ard": 619,
      "get": 620,
      "Ġ|": 621,
      "low": 622,
      "**:": 623,
      "str": 624,
      "ost": 625,
      "Ġapp": 626,
      "ail": 627,
      "der": 628,
      "Ġsp": 629,
      "yst": 630,
      "Ġse": 631,
      "Ġdata": 632,
      "\",": 633,
      ").": 634,
      "==": 635,
      "unction": 636,
      "Ġhe": 637,
      "ide": 638,
      "ype": 639,
      "âĢ": 640,
      "ĠIn": 641,
      "ould": 642,
      "ach": 643,
      "rou": 644,
      "Ġcont": 645,
      "Ġwe": 646,
      "ice": 647,
      "ystem": 648,
      "ated": 649,
      "ps": 650,
      "ory": 651,
      "ber": 652,
      "cri": 653,
      "ser": 654,
      "ize": 655,
      "ans": 656,
      "Ġyour": 657,
      "Ġreturn": 658,
      "Ġj": 659,
      "Ġper": 660,
      "du": 661,
      "oo": 662,
      "ast": 663,
      "ĠV": 664,
      "pro": 665,
      "ft": 666,
      "ĉĉĉĉ": 667,
      "Ġres": 668,
      "ace": 669,
      "fer": 670,
      "Ġ//": 671,
      "ary": 672,
      "ak": 673,
      "In": 674,
      "Ġhave": 675,
      "Ġval": 676,
      "ĠJ": 677,
      "ical": 678,
      "hen": 679,
      "Ġstr": 680,
      "ption": 681,
      "Ġnew": 682,
      "ĠĠĠĠĠĠĠĠĠĠĠĠĠĠĠĠĠĠĠĠĠ": 683,
      "lo": 684,
      "ition": 685,
      "ite": 686,
      "ord": 687,
      "ress": 688,
      "ip": 689,
      "(\"": 690,
      "Ġac": 691,
      "iew": 692,
      "ample": 693,
      "ich": 694,
      "ks": 695,
      "ĠĠĠĠĠĠĠĠĠĠĠĠĠĠĠĠĠĠĠĠĠĠĠ": 696,
      "Ġdo": 697,
      "),": 698,
      "con": 699,
      "eed": 700,
      "--------": 701,
      "ev": 702,
      "Ġqu": 703,
      "Ġset": 704,
      "Ġbut": 705,
      "one": 706,
      "Ġusing": 707,
      "div": 708,
      "ug": 709,
      "Ġar": 710,
      "li": 711,
      "enc": 712,
      "Ġpl": 713,
      "so": 714,
      "Ġuse": 715,
      "ents": 716,
      "ence": 717,
      "ep": 718,
      "Ġup": 719,
      "',": 720,
      "Ġk": 721,
      "Ġnum": 722,
      "Ġpr": 723,
      "ĠThis": 724,
      "Ġab": 725,
      "__": 726,
      "Ġfunction": 727,
      "Ġi": 728,
      "_{": 729,
      "ount": 730,
      "ror": 731,
      "ens": 732,
      "ge": 733,
      "Ġcomp": 734,
      "ublic": 735,
      "ific": 736,
      "eth": 737,
      "fig": 738,
      "ns": 739,
      "###": 740,
      "ax": 741,
      "_t": 742,
      "clud": 743,
      "ual": 744,
      "Ġ:": 745,
      "ock": 746,
      "ther": 747,
      "->": 748,
      "St": 749,
      "Ġall": 750,
      "Ġmod": 751,
      "))": 752,
      "ell": 753,
      "Ġ&": 754,
      "ll": 755,
      "Ġme": 756,
      "Âł": 757,
      ".s": 758,
      "Ġsc": 759,
      "val": 760,
      "bject": 761,
      "Ġ.": 762,
      "ong": 763,
      "ome": 764,
      "ous": 765,
      "Ġli": 766,
      "ating": 767,
      "ari": 768,
      "Ġwhich": 769,
      "Ġadd": 770,
      "but": 771,
      "();": 772,
      "ry": 773,
      "Ġman": 774,
      "://": 775,
      "ĠSt": 776,
      "Ġpre": 777,
      "Ġ/": 778,
      "row": 779,
      "ild": 780,
      "Ġser": 781,
      "::": 782,
      "ener": 783,
      "Ġwas": 784,
      "The": 785,
      "etw": 786,
      "ss": 787,
      "app": 788,
      "elf": 789,
      "Ġdef": 790,
      "Ġwill": 791,
      "ues": 792,
      "ates": 793,
      "Ġmore": 794,
      "htt": 795,
      "ake": 796,
      "Ġdis": 797,
      "ram": 798,
      "tring": 799,
      "cript": 800,
      "****": 801,
      "pr": 802,
      "Ġhas": 803,
      "ree": 804,
      "ph": 805,
      "ient": 806,
      "Ġinter": 807,
      "eb": 808,
      "ray": 809,
      "Ġwork": 810,
      "Ġrequ": 811,
      "ting": 812,
      "oint": 813,
      "Ġperform": 814,
      "Ġout": 815,
      "ear": 816,
      "les": 817,
      "own": 818,
      "('": 819,
      "ures": 820,
      "Ġget": 821,
      "Ġcomm": 822,
      "ix": 823,
      "ĠY": 824,
      "lect": 825,
      "ck": 826,
      "yn": 827,
      "ĠPro": 828,
      "oid": 829,
      "ms": 830,
      "ech": 831,
      "Ġlike": 832,
      "Qu": 833,
      "ethod": 834,
      "Ġprov": 835,
      "aram": 836,
      "ĠK": 837,
      "ink": 838,
      "oth": 839,
      "ility": 840,
      "key": 841,
      "Ġ#": 842,
      "Ġ</": 843,
      "ound": 844,
      "Ġsystem": 845,
      "import": 846,
      "anc": 847,
      "ull": 848,
      "ble": 849,
      "uct": 850,
      "ĠĠĠĠĠĠĠĠĠĠĠĠĠĠĠĠĠĠĠĠĠĠĠĠĠ": 851,
      "Ġcol": 852,
      "Ġwhen": 853,
      "Ġx": 854,
      "Ġso": 855,
      "Ġused": 856,
      "urre": 857,
      "Ġcre": 858,
      "ob": 859,
      "ors": 860,
      "'t": 861,
      "ER": 862,
      ".com": 863,
      "ĠCon": 864,
      "name": 865,
      "ages": 866,
      ".c": 867,
      "wer": 868,
      "ribut": 869,
      "ify": 870,
      "ov": 871,
      "ĠEx": 872,
      "ange": 873,
      "Ġneed": 874,
      "ource": 875,
      "ĠĠĠĠĠĠĠĠĠĠĠĠĠĠĠĠĠĠĠĠĠĠĠĠĠĠĠ": 876,
      "Ġinst": 877,
      "ook": 878,
      "ra": 879,
      "Ġspec": 880,
      "read": 881,
      "Ġtime": 882,
      "Ġ@": 883,
      "estion": 884,
      "Th": 885,
      "te": 886,
      "Ġexample": 887,
      "error": 888,
      "vel": 889,
      "vent": 890,
      "ments": 891,
      "bo": 892,
      "ĠFor": 893,
      "ely": 894,
      "math": 895,
      "Ġone": 896,
      "ĠIt": 897,
      "atch": 898,
      "gh": 899,
      "ery": 900,
      "Ġcode": 901,
      "Ġany": 902,
      "ia": 903,
      "ics": 904,
      "olut": 905,
      "Ġid": 906,
      "{\\": 907,
      "Ġfile": 908,
      "Ġdes": 909,
      "eng": 910,
      "Ġover": 911,
      "ersion": 912,
      "vice": 913,
      "ON": 914,
      "Ġdif": 915,
      "ml": 916,
      "Ex": 917,
      "ash": 918,
      "ĠCom": 919,
      "Ġinto": 920,
      "Pro": 921,
      "pon": 922,
      "Ġmy": 923,
      "Com": 924,
      "set": 925,
      "ization": 926,
      "ices": 927,
      "iel": 928,
      "Ġpart": 929,
      "Ġfol": 930,
      "led": 931,
      "td": 932,
      "ert": 933,
      "Ġinclud": 934,
      "Ġbu": 935,
      "pport": 936,
      "urrent": 937,
      "ool": 938,
      "ref": 939,
      "Ġvalue": 940,
      "ement": 941,
      "Ġpublic": 942,
      "ĠRe": 943,
      "IN": 944,
      "Ġprocess": 945,
      "Ġperformance": 946,
      "Ġother": 947,
      "Ġthey": 948,
      "Ġad": 949,
      "-t": 950,
      "_d": 951,
      "Ġro": 952,
      "ava": 953,
      "ased": 954,
      "Ġtest": 955,
      "Ġnumber": 956,
      "Ġens": 957,
      "echn": 958,
      "ield": 959,
      "ose": 960,
      "tt": 961,
      "iqu": 962,
      "====": 963,
      "ache": 964,
      "ning": 965,
      "Ġabout": 966,
      "igh": 967,
      "rit": 968,
      "Ġsec": 969,
      "min": 970,
      "irst": 971,
      ".p": 972,
      "heck": 973,
      "Ġgo": 974,
      "Ġfil": 975,
      "ys": 976,
      "Ġeff": 977,
      "eat": 978,
      "ick": 979,
      "ible": 980,
      "Ġ>": 981,
      "oad": 982,
      "Re": 983,
      "_c": 984,
      "indow": 985,
      "Ġsim": 986,
      "}$": 987,
      "Ġ$\\": 988,
      "Ġuser": 989,
      "Ġcons": 990,
      "ator": 991,
      "use": 992,
      "io": 993,
      "rap": 994,
      "ault": 995,
      "Ġapplic": 996,
      "Ġsuch": 997,
      "-b": 998,
      "ict": 999,
      "ĠIf": 1000,
      "uring": 1001,
      "Ġhand": 1002,
      "âĢĻ": 1003,
      "Ġform": 1004,
      "sh": 1005,
      "ĉĉĉ": 1006,
      "Ġiss": 1007,
      "Ġlist": 1008,
      "ally": 1009,
      "Ġ==": 1010,
      "atic": 1011,
      "Ġdiffer": 1012,
      "Ġshould": 1013,
      "nect": 1014,
      "plement": 1015,
      "Ġname": 1016,
      "ove": 1017,
      "],": 1018,
      "Ġ=>": 1019,
      "Ġpos": 1020,
      ".get": 1021,
      "wo": 1022,
      "Cont": 1023,
      "irect": 1024,
      "add": 1025,
      "ST": 1026,
      ".d": 1027,
      "Ġ```": 1028,
      "ument": 1029,
      "line": 1030,
      "right": 1031,
      "Ġopt": 1032,
      "ulti": 1033,
      "\":": 1034,
      "Ġtrans": 1035,
      "Ġresult": 1036,
      "Ġsome": 1037,
      "Name": 1038,
      "Ġind": 1039,
      "ustom": 1040,
      "Ġhow": 1041,
      "tern": 1042,
      "Ġalso": 1043,
      "++": 1044,
      "ma": 1045,
      "Ġinv": 1046,
      "cre": 1047,
      "AT": 1048,
      "String": 1049,
      "Ġfollow": 1050,
      "Con": 1051,
      "List": 1052,
      "Ġtype": 1053,
      "ular": 1054,
      "ware": 1055,
      "Ġsub": 1056,
      "ton": 1057,
      "ww": 1058,
      "Ġits": 1059,
      "code": 1060,
      "\")": 1061,
      "Ġthere": 1062,
      "](": 1063,
      "Ġtheir": 1064,
      "_s": 1065,
      "Ġhel": 1066,
      "Ġel": 1067,
      "ative": 1068,
      "Ġonly": 1069,
      "Ġno": 1070,
      "_m": 1071,
      "ider": 1072,
      "Ġvari": 1073,
      "fr": 1074,
      "Ġmethod": 1075,
      "...": 1076,
      "Ġeach": 1077,
      "To": 1078,
      "ark": 1079,
      "log": 1080,
      "Ġthese": 1081,
      "Ġdet": 1082,
      "Ġlog": 1083,
      "ower": 1084,
      "ĠĠĠĠĠĠĠĠĠĠĠĠĠĠĠĠĠĠĠĠĠĠĠĠĠĠĠĠĠ": 1085,
      "span": 1086,
      "-c": 1087,
      "Ġthem": 1088,
      "^{": 1089,
      "ĠWh": 1090,
      "Ġwhere": 1091,
      "ĠX": 1092,
      "rol": 1093,
      "essage": 1094,
      "Ġaut": 1095,
      "Ġmem": 1096,
      "ĠCh": 1097,
      ".t": 1098,
      "Ġallow": 1099,
      "ond": 1100,
      "ng": 1101,
      "pert": 1102,
      "Ġem": 1103,
      "-s": 1104,
      "Ġexp": 1105,
      "Ġconst": 1106,
      "-d": 1107,
      "ifi": 1108,
      "its": 1109,
      "abel": 1110,
      "Ġerror": 1111,
      "Ġkey": 1112,
      "RE": 1113,
      "Id": 1114,
      "Ch": 1115,
      "raph": 1116,
      "):": 1117,
      "pen": 1118,
      "ĠĠĠĠĠĠĠĠĠĠĠĠĠĠĠĠĠĠĠĠĠĠĠĠĠĠĠĠĠĠĠ": 1119,
      "Ġrun": 1120,
      "ays": 1121,
      "ency": 1122,
      "_p": 1123,
      "Ġcor": 1124,
      "over": 1125,
      "Ġthan": 1126,
      "olv": 1127,
      "`,": 1128,
      "iss": 1129,
      "Ġwould": 1130,
      "arch": 1131,
      "formation": 1132,
      "che": 1133,
      ".m": 1134,
      "}}": 1135,
      "ise": 1136,
      "Ġev": 1137,
      "this": 1138,
      "fo": 1139,
      "Ġrem": 1140,
      "`.": 1141,
      "Ġthen": 1142,
      "arg": 1143,
      "ie": 1144,
      "olution": 1145,
      "date": 1146,
      "ever": 1147,
      "alse": 1148,
      "Ġprovid": 1149,
      "ength": 1150,
      "een": 1151,
      "text": 1152,
      "----------------": 1153,
      "Ġgener": 1154,
      "etwork": 1155,
      "Ġ--": 1156,
      "Ġmodel": 1157,
      "ateg": 1158,
      "Ġunder": 1159,
      "Ġrep": 1160,
      "Ġtwo": 1161,
      "ential": 1162,
      "inal": 1163,
      "Ġimpro": 1164,
      "Ġoper": 1165,
      "load": 1166,
      "ca": 1167,
      "roup": 1168,
      "Ġconfig": 1169,
      "><": 1170,
      "nswer": 1171,
      "def": 1172,
      "Ġrec": 1173,
      "Question": 1174,
      "Ġsign": 1175,
      "Ġstring": 1176,
      "ctions": 1177,
      ".j": 1178,
      "ized": 1179,
      "play": 1180,
      "></": 1181,
      "ocal": 1182,
      "ID": 1183,
      "Ġback": 1184,
      "view": 1185,
      "fter": 1186,
      "ĠHow": 1187,
      "org": 1188,
      "Ġend": 1189,
      "etween": 1190,
      "Ġreg": 1191,
      "duct": 1192,
      "Ġdist": 1193,
      "echniqu": 1194,
      "Ġhelp": 1195,
      "Ġobject": 1196,
      "http": 1197,
      "Ġmin": 1198,
      "gram": 1199,
      "Ġself": 1200,
      "ey": 1201,
      "ling": 1202,
      "ability": 1203,
      "Ġsupport": 1204,
      "Ġstart": 1205,
      "Ġdoes": 1206,
      "Ġ*/": 1207,
      "_f": 1208,
      "ater": 1209,
      "Ġatt": 1210,
      "\");": 1211,
      "https": 1212,
      "ule": 1213,
      "ask": 1214,
      "lock": 1215,
      "Ġag": 1216,
      "Data": 1217,
      "LE": 1218,
      "aint": 1219,
      "yth": 1220,
      "Ġcomple": 1221,
      "Ġdifferent": 1222,
      "cc": 1223,
      "ocument": 1224,
      "round": 1225,
      "itle": 1226,
      "(s": 1227,
      "Ġam": 1228,
      "},": 1229,
      "Ġav": 1230,
      "PI": 1231,
      "yle": 1232,
      "}\\": 1233,
      "Ġmulti": 1234,
      "Ġread": 1235,
      "old": 1236,
      "ful": 1237,
      "Ġkn": 1238,
      "ĠYou": 1239,
      "Ġpoint": 1240,
      ".g": 1241,
      "uration": 1242,
      "apt": 1243,
      "ish": 1244,
      "odel": 1245,
      "Ġaccess": 1246,
      "egr": 1247,
      "num": 1248,
      "Ġhigh": 1249,
      "ces": 1250,
      "Ġwhile": 1251,
      "aramet": 1252,
      "Ġfirst": 1253,
      "left": 1254,
      "ities": 1255,
      "back": 1256,
      "Ġacc": 1257,
      "Ġbetween": 1258,
      "Ġresp": 1259,
      "Ġass": 1260,
      "FF": 1261,
      "rite": 1262,
      "lement": 1263,
      "SS": 1264,
      "Ġwhat": 1265,
      "Ġchar": 1266,
      "Ġdec": 1267,
      "ĠAdd": 1268,
      "ĠAn": 1269,
      "Answer": 1270,
      "Type": 1271,
      "Ġrel": 1272,
      "********": 1273,
      "rough": 1274,
      "ines": 1275,
      "idth": 1276,
      "arget": 1277,
      "iven": 1278,
      "Ġrequire": 1279,
      "ĠSystem": 1280,
      "ĠIm": 1281,
      "')": 1282,
      "AR": 1283,
      "ically": 1284,
      "ade": 1285,
      "Ġtool": 1286,
      "Ġjust": 1287,
      "Ġent": 1288,
      "uc": 1289,
      "class": 1290,
      "ivate": 1291,
      "Ġcurrent": 1292,
      "Ġvoid": 1293,
      "Ġcal": 1294,
      "Val": 1295,
      "anag": 1296,
      "];": 1297,
      "Ġmay": 1298,
      "Res": 1299,
      "ĠTr": 1300,
      "velop": 1301,
      "rc": 1302,
      "ner": 1303,
      "Ġelse": 1304,
      "OR": 1305,
      "This": 1306,
      "Ġact": 1307,
      "ern": 1308,
      "for": 1309,
      "Ġtext": 1310,
      "imes": 1311,
      "itor": 1312,
      "SE": 1313,
      "Ġ_": 1314,
      "Ġhref": 1315,
      "Ġfollowing": 1316,
      "not": 1317,
      "word": 1318,
      "Ġ!": 1319,
      "html": 1320,
      "ets": 1321,
      "ym": 1322,
      "ĠSer": 1323,
      "Ġdevelop": 1324,
      "urity": 1325,
      "DE": 1326,
      "---": 1327,
      "ames": 1328,
      ".l": 1329,
      "icient": 1330,
      "Ġfind": 1331,
      "Ġversion": 1332,
      "ĠUn": 1333,
      "Ġimport": 1334,
      "ons": 1335,
      "čĊčĊ": 1336,
      "Ġappro": 1337,
      "oy": 1338,
      "ä¸": 1339,
      "Ġbeen": 1340,
      "Ġsame": 1341,
      "ream": 1342,
      "Ser": 1343,
      "indows": 1344,
      "[i": 1345,
      "fore": 1346,
      "Ġredu": 1347,
      "Ġoptim": 1348,
      "string": 1349,
      "echniques": 1350,
      "Ar": 1351,
      "ibr": 1352,
      "itial": 1353,
      "ĠĠĠĠĠĠĠĠĠĠĠĠĠĠĠĠĠĠĠĠĠĠĠĠĠĠĠĠĠĠĠĠĠ": 1354,
      "Ġfiles": 1355,
      "to": 1356,
      "Ġmemory": 1357,
      "rect": 1358,
      "cept": 1359,
      "ian": 1360,
      "Col": 1361,
      "_l": 1362,
      "ified": 1363,
      "Ġ%": 1364,
      ".f": 1365,
      "ĠApp": 1366,
      "let": 1367,
      "../": 1368,
      "AL": 1369,
      "Ġimplement": 1370,
      "Ġproble": 1371,
      "Ġfeat": 1372,
      "Ġsm": 1373,
      "resent": 1374,
      "View": 1375,
      "ecut": 1376,
      "inu": 1377,
      "rm": 1378,
      "pos": 1379,
      "rid": 1380,
      "of": 1381,
      "Ġtrue": 1382,
      "Ġcreate": 1383,
      "erm": 1384,
      "ox": 1385,
      "Tr": 1386,
      "cription": 1387,
      "Ġthrough": 1388,
      "vir": 1389,
      "Ġpar": 1390,
      "Ġmake": 1391,
      "ta": 1392,
      "Ġdirect": 1393,
      "-m": 1394,
      "Ġph": 1395,
      "ead": 1396,
      "ector": 1397,
      "return": 1398,
      "itional": 1399,
      "Ġequ": 1400,
      "ection": 1401,
      "ĠĠĠĠĠĠĠĠĠĠĠĠĠĠĠĠĠĠĠĠĠĠĠĠĠĠĠĠĠĠĠĠĠĠĠ": 1402,
      "file": 1403,
      "Ġchang": 1404,
      "ings": 1405,
      "Ġinformation": 1406,
      "oot": 1407,
      "struct": 1408,
      "izing": 1409,
      "EN": 1410,
      "requ": 1411,
      "aw": 1412,
      "lease": 1413,
      "ote": 1414,
      "other": 1415,
      "roll": 1416,
      "uth": 1417,
      "IT": 1418,
      "ables": 1419,
      "vices": 1420,
      "face": 1421,
      "Ġbuild": 1422,
      "ĠInt": 1423,
      "ython": 1424,
      "ĠBy": 1425,
      "Ġmanag": 1426,
      "Ġstruct": 1427,
      "Ġoff": 1428,
      "head": 1429,
      "ging": 1430,
      "tem": 1431,
      "Ġdat": 1432,
      "(\\": 1433,
      "ĊĊĊ": 1434,
      "cul": 1435,
      "stand": 1436,
      "user": 1437,
      "Ġans": 1438,
      "\";": 1439,
      "ception": 1440,
      "ne": 1441,
      "ĠÐ": 1442,
      "Ġwant": 1443,
      "aking": 1444,
      "Ġissues": 1445,
      "atus": 1446,
      "Ġz": 1447,
      "Ġcase": 1448,
      "ĠAr": 1449,
      "Ġright": 1450,
      "new": 1451,
      "als": 1452,
      "Ġ)": 1453,
      "Ġline": 1454,
      "par": 1455,
      "Ġwithout": 1456,
      "Ġspecific": 1457,
      "Ġident": 1458,
      "ackage": 1459,
      ".org": 1460,
      "Ġsize": 1461,
      "`:": 1462,
      "frac": 1463,
      "ĠAl": 1464,
      "ĠString": 1465,
      "}{": 1466,
      "ee": 1467,
      "ross": 1468,
      "ases": 1469,
      "data": 1470,
      "Ġdr": 1471,
      "ĠCont": 1472,
      "ML": 1473,
      "Ġapplication": 1474,
      "ĠâĢ": 1475,
      "Ġever": 1476,
      "eta": 1477,
      "Ġconnect": 1478,
      "public": 1479,
      "aining": 1480,
      "Ġsee": 1481,
      "Ġensure": 1482,
      "rror": 1483,
      "Ġed": 1484,
      "lass": 1485,
      "ious": 1486,
      "AN": 1487,
      "Ġob": 1488,
      "Ġserver": 1489,
      "red": 1490,
      "âĢĻs": 1491,
      "plic": 1492,
      "cal": 1493,
      "Ġmat": 1494,
      "Ġinput": 1495,
      "_b": 1496,
      "sing": 1497,
      "Ġarray": 1498,
      "ains": 1499,
      "Ġmight": 1500,
      "ails": 1501,
      "Ġproject": 1502,
      "col": 1503,
      "Ġnetwork": 1504,
      "Ġmultiple": 1505,
      "Ġu": 1506,
      "son": 1507,
      ".h": 1508,
      "oin": 1509,
      "ron": 1510,
      "Ġload": 1511,
      "AC": 1512,
      "Ġdep": 1513,
      "_C": 1514,
      "value": 1515,
      "px": 1516,
      "ĠRes": 1517,
      "bers": 1518,
      "-l": 1519,
      "])": 1520,
      "Ġcould": 1521,
      "Ġway": 1522,
      "Ġlong": 1523,
      "Ġcall": 1524,
      "Ġrequest": 1525,
      "($": 1526,
      "].": 1527,
      "-f": 1528,
      "ense": 1529,
      "clude": 1530,
      "Ġnull": 1531,
      "gor": 1532,
      "print": 1533,
      "lean": 1534,
      "Ġinvolv": 1535,
      "ality": 1536,
      "Ġcustom": 1537,
      "-p": 1538,
      ">>": 1539,
      "OM": 1540,
      "ected": 1541,
      "Ġext": 1542,
      "Ð¾": 1543,
      "ocation": 1544,
      "Im": 1545,
      "Ġtyp": 1546,
      "viron": 1547,
      "Ġlet": 1548,
      "Ġmon": 1549,
      "By": 1550,
      "ET": 1551,
      "['": 1552,
      "ï¼": 1553,
      "Ġprogram": 1554,
      "reate": 1555,
      "Ġmax": 1556,
      "Ġafter": 1557,
      "gorith": 1558,
      "imit": 1559,
      "Ġknow": 1560,
      ".b": 1561,
      "Ġstatic": 1562,
      "ared": 1563,
      "Ġstate": 1564,
      "Ġ},": 1565,
      "air": 1566,
      ".n": 1567,
      "abase": 1568,
      "Ġwere": 1569,
      "Ġcommand": 1570,
      "Ġ,": 1571,
      "='": 1572,
      "Ġenc": 1573,
      "var": 1574,
      "item": 1575,
      "igned": 1576,
      "ik": 1577,
      "Ġtem": 1578,
      "Ġcheck": 1579,
      "AM": 1580,
      "lection": 1581,
      "ĠEn": 1582,
      "Ġboth": 1583,
      "ten": 1584,
      "Text": 1585,
      "ody": 1586,
      "Int": 1587,
      "ĠWhat": 1588,
      "Ġcomput": 1589,
      "itions": 1590,
      "Ġreal": 1591,
      "ined": 1592,
      "ough": 1593,
      "ÂłÂł": 1594,
      "ĠUse": 1595,
      "evel": 1596,
      "eo": 1597,
      "Ġbased": 1598,
      "Ġwho": 1599,
      "ĠSh": 1600,
      "========": 1601,
      "icro": 1602,
      "PU": 1603,
      "roid": 1604,
      "opy": 1605,
      "Ġfl": 1606,
      "Ġcontrol": 1607,
      "Set": 1608,
      "ĠTo": 1609,
      "Ġanal": 1610,
      "action": 1611,
      "ccess": 1612,
      "af": 1613,
      "ĠWindows": 1614,
      "ources": 1615,
      "));": 1616,
      "pec": 1617,
      "nder": 1618,
      "ayer": 1619,
      "Ġpower": 1620,
      "Ġeven": 1621,
      "Ġdefault": 1622,
      "ĠData": 1623,
      "ailable": 1624,
      "ann": 1625,
      "Ġfield": 1626,
      "atter": 1627,
      "Ġvalues": 1628,
      "Ġpass": 1629,
      "Ðµ": 1630,
      "iver": 1631,
      "mit": 1632,
      "orld": 1633,
      "Object": 1634,
      "Ġfalse": 1635,
      "ynam": 1636,
      "olog": 1637,
      "Ġcount": 1638,
      "und": 1639,
      "';": 1640,
      "uff": 1641,
      "ĠAd": 1642,
      "Ġdown": 1643,
      "QL": 1644,
      "Ð°": 1645,
      "Ġweb": 1646,
      ")$": 1647,
      "Ġpol": 1648,
      "ences": 1649,
      "uss": 1650,
      "ward": 1651,
      "ken": 1652,
      "Ġinstall": 1653,
      "ins": 1654,
      "oun": 1655,
      "_id": 1656,
      "-w": 1657,
      "sert": 1658,
      "Ġinclude": 1659,
      "Ġprovide": 1660,
      "Ġbefore": 1661,
      "ftware": 1662,
      "Ġshow": 1663,
      "const": 1664,
      "/s": 1665,
      "cont": 1666,
      "Ġusers": 1667,
      "Ġcr": 1668,
      "arge": 1669,
      "Add": 1670,
      "order": 1671,
      "www": 1672,
      ".set": 1673,
      "util": 1674,
      "Ġanswer": 1675,
      "olve": 1676,
      "Ġtry": 1677,
      "using": 1678,
      "perty": 1679,
      "Ġposs": 1680,
      "Ġconsider": 1681,
      "cause": 1682,
      "Ġcorrect": 1683,
      "][": 1684,
      "time": 1685,
      "the": 1686,
      "Ġbecause": 1687,
      "escription": 1688,
      "Ġeffect": 1689,
      "Ġsetting": 1690,
      "Ġdon": 1691,
      "Ġprivate": 1692,
      "ingle": 1693,
      "enter": 1694,
      "Ġdocument": 1695,
      "uild": 1696,
      "For": 1697,
      "Ġ->": 1698,
      "ploy": 1699,
      "ced": 1700,
      "Ġdistribut": 1701,
      "angu": 1702,
      "Ġmost": 1703,
      "ĠĠĠĠĠĠĠĠĠĠĠĠĠĠĠĠĠĠĠĠĠĠĠĠĠĠĠĠĠĠĠĠĠĠĠĠĠ": 1704,
      "User": 1705,
      "LL": 1706,
      "ules": 1707,
      "ank": 1708,
      "ually": 1709,
      "Value": 1710,
      "index": 1711,
      "Ġintegr": 1712,
      "gr": 1713,
      "Ġfact": 1714,
      "Ġgu": 1715,
      "ĉif": 1716,
      "Ġnow": 1717,
      "her": 1718,
      "Ġsystems": 1719,
      "Ġproblem": 1720,
      "Ġcontent": 1721,
      "/m": 1722,
      "((": 1723,
      "ression": 1724,
      "Ġvar": 1725,
      "ĠWe": 1726,
      "Ġdepend": 1727,
      "vert": 1728,
      "ĠLet": 1729,
      "CT": 1730,
      "$$": 1731,
      "ait": 1732,
      "ession": 1733,
      "reg": 1734,
      "ĠAPI": 1735,
      "be": 1736,
      "reat": 1737,
      "ember": 1738,
      "ier": 1739,
      "Ġcomplex": 1740,
      "ives": 1741,
      "(f": 1742,
      "comm": 1743,
      "rop": 1744,
      ".\"": 1745,
      "anced": 1746,
      "Ġapplications": 1747,
      "Ġinvolves": 1748,
      "Ġdisc": 1749,
      ".w": 1750,
      "rix": 1751,
      "Ġexper": 1752,
      "Ġaddress": 1753,
      "');": 1754,
      "box": 1755,
      "Ġarg": 1756,
      "////": 1757,
      "Date": 1758,
      "Ġvis": 1759,
      "ĠPl": 1760,
      "ience": 1761,
      ".html": 1762,
      "include": 1763,
      "Ġorder": 1764,
      "Ġtarget": 1765,
      "egin": 1766,
      "Ġprot": 1767,
      "ĠĠĠĠĠĠĠĠĠĠĠĠĠĠĠĠĠĠĠĠĠĠĠĠĠĠĠĠĠĠĠĠĠĠĠĠĠĠĠ": 1768,
      "akes": 1769,
      "Ġhis": 1770,
      "ĠQ": 1771,
      "Time": 1772,
      "equ": 1773,
      "Ġcharact": 1774,
      "Ġour": 1775,
      "lear": 1776,
      "Ġparamet": 1777,
      "br": 1778,
      "Ġyear": 1779,
      "ĠAnd": 1780,
      "_S": 1781,
      "Ġlead": 1782,
      "ger": 1783,
      "_n": 1784,
      "umm": 1785,
      "Ġprint": 1786,
      "ync": 1787,
      "reak": 1788,
      "ele": 1789,
      "ibility": 1790,
      "Ġorg": 1791,
      "iles": 1792,
      "ince": 1793,
      "ily": 1794,
      "Ġco": 1795,
      "Ġissue": 1796,
      "Ġhad": 1797,
      "Ġ&&": 1798,
      "Ġpage": 1799,
      "Ġimprove": 1800,
      "_{\\": 1801,
      "itive": 1802,
      "uch": 1803,
      "eger": 1804,
      "Ġpartic": 1805,
      "lick": 1806,
      "ponse": 1807,
      "Ġchanges": 1808,
      "Ġpost": 1809,
      "Ġwell": 1810,
      "Ġformat": 1811,
      "odes": 1812,
      "(m": 1813,
      "Ġefficient": 1814,
      "Ġgiven": 1815,
      "ĠAs": 1816,
      "eople": 1817,
      "ush": 1818,
      "Ġopen": 1819,
      "Ġindex": 1820,
      "Ġexecut": 1821,
      "ĠSet": 1822,
      "Ġpath": 1823,
      "etr": 1824,
      "Ġeas": 1825,
      "enu": 1826,
      "umn": 1827,
      "Ġlook": 1828,
      "bash": 1829,
      "Ġmust": 1830,
      "aster": 1831,
      "Ġoutput": 1832,
      "/l": 1833,
      "mathrm": 1834,
      "#####": 1835,
      "ott": 1836,
      "Ġgr": 1837,
      "raw": 1838,
      "Ġbl": 1839,
      "Ġhandle": 1840,
      "bin": 1841,
      "ples": 1842,
      "Ġsecond": 1843,
      "erson": 1844,
      "Ġbeing": 1845,
      "Ġprovides": 1846,
      "ision": 1847,
      "Ġhead": 1848,
      "urs": 1849,
      "wh": 1850,
      "lob": 1851,
      "/d": 1852,
      ".,": 1853,
      "ĠUp": 1854,
      "Ġtools": 1855,
      "aces": 1856,
      "Ġitem": 1857,
      "Ġbr": 1858,
      "Ġsignific": 1859,
      "arent": 1860,
      "Ġview": 1861,
      "Ġcompon": 1862,
      "iled": 1863,
      "ĠList": 1864,
      "(x": 1865,
      "eps": 1866,
      "Item": 1867,
      "type": 1868,
      "ĠHowever": 1869,
      "ouble": 1870,
      "An": 1871,
      "Ġfound": 1872,
      "inux": 1873,
      "Node": 1874,
      "void": 1875,
      "_in": 1876,
      "Ġ?": 1877,
      "Ġimage": 1878,
      "Ġalgorith": 1879,
      "Ġsmall": 1880,
      "_P": 1881,
      "Ġselect": 1882,
      "wit": 1883,
      "().": 1884,
      "less": 1885,
      "Ġlear": 1886,
      "Ġmany": 1887,
      "bar": 1888,
      "ayout": 1889,
      "Ġnon": 1890,
      "Ġmessage": 1891,
      "ication": 1892,
      "Ġupd": 1893,
      "Ġmaint": 1894,
      "Ġenviron": 1895,
      "OS": 1896,
      "idd": 1897,
      "etter": 1898,
      "ION": 1899,
      "img": 1900,
      "-in": 1901,
      "stall": 1902,
      "Ġexpl": 1903,
      "Ġavailable": 1904,
      "Ġfunctions": 1905,
      "AD": 1906,
      "Ġincre": 1907,
      ".S": 1908,
      "Ġ!=": 1909,
      "ively": 1910,
      "Ġtop": 1911,
      "Ġvalid": 1912,
      "Ġ__": 1913,
      "ĠPr": 1914,
      "(n": 1915,
      "gg": 1916,
      "lex": 1917,
      "Ġimprov": 1918,
      "'m": 1919,
      "Ġfr": 1920,
      "mathb": 1921,
      "Ġsignificant": 1922,
      "ĠPer": 1923,
      "Ġsource": 1924,
      "\\\\": 1925,
      "ĠJava": 1926,
      "Ġevery": 1927,
      "ĠSu": 1928,
      "Ġevent": 1929,
      "Ð¸": 1930,
      "ÑĤ": 1931,
      "ler": 1932,
      "param": 1933,
      "sc": 1934,
      "ibrary": 1935,
      "ured": 1936,
      "[]": 1937,
      "ags": 1938,
      "Ġlocal": 1939,
      "da": 1940,
      "ãģ": 1941,
      "Ġâ": 1942,
      "Ġquestion": 1943,
      "ecess": 1944,
      "Ġrefer": 1945,
      "url": 1946,
      "isc": 1947,
      "ework": 1948,
      "Get": 1949,
      "Ġcond": 1950,
      "ysis": 1951,
      "']": 1952,
      "quest": 1953,
      "Ġsom": 1954,
      "ĠSo": 1955,
      "Ġsecurity": 1956,
      "IC": 1957,
      "Ġunderstand": 1958,
      "label": 1959,
      "Ġallows": 1960,
      "ĠZ": 1961,
      "ql": 1962,
      "ED": 1963,
      "ior": 1964,
      "Ġstud": 1965,
      "hed": 1966,
      "Ġexist": 1967,
      "ots": 1968,
      "edia": 1969,
      "\"></": 1970,
      "hes": 1971,
      "Ġmain": 1972,
      "Ġhere": 1973,
      "oop": 1974,
      "Ġpossible": 1975,
      "Ġtable": 1976,
      "rem": 1977,
      "til": 1978,
      "any": 1979,
      "Ġtechniques": 1980,
      "Ġthink": 1981,
      "ification": 1982,
      "App": 1983,
      "ivity": 1984,
      "plate": 1985,
      "Ġchange": 1986,
      "sole": 1987,
      "andard": 1988,
      "âĢ¢": 1989,
      "irc": 1990,
      "Ġfeatures": 1991,
      "File": 1992,
      "\"><": 1993,
      "amb": 1994,
      "az": 1995,
      "ĉreturn": 1996,
      "amp": 1997,
      "çļ": 1998,
      "Ġproduct": 1999,
      "ground": 2000,
      "_T": 2001,
      "ribute": 2002,
      "Ġscript": 2003,
      "Ġbeh": 2004,
      "çļĦ": 2005,
      "rec": 2006,
      "Ġlarge": 2007,
      "script": 2008,
      "ale": 2009,
      "loat": 2010,
      "_M": 2011,
      "(t": 2012,
      "Ġwithin": 2013,
      "mp": 2014,
      "Ġoperations": 2015,
      "Ġleft": 2016,
      "ane": 2017,
      "Ġpeople": 2018,
      "Ġca": 2019,
      "Pl": 2020,
      "php": 2021,
      "Ġdid": 2022,
      "Error": 2023,
      "ts": 2024,
      "ĠManag": 2025,
      "Exception": 2026,
      "Ġresults": 2027,
      "mat": 2028,
      "Ġgood": 2029,
      "board": 2030,
      "....": 2031,
      "Ġstore": 2032,
      "imum": 2033,
      "start": 2034,
      "Un": 2035,
      "On": 2036,
      "ĠComm": 2037,
      "Ġconfiguration": 2038,
      "config": 2039,
      "/c": 2040,
      "ĠWeb": 2041,
      "lements": 2042,
      "ĠOn": 2043,
      "ainer": 2044,
      "perties": 2045,
      "Ġconsist": 2046,
      "Ġcommon": 2047,
      "Ġsingle": 2048,
      "ES": 2049,
      "Ġnext": 2050,
      "array": 2051,
      "self": 2052,
      "ramework": 2053,
      "ĠHere": 2054,
      "aps": 2055,
      "UR": 2056,
      "tic": 2057,
      "wn": 2058,
      "Wh": 2059,
      "Ġbetter": 2060,
      "AB": 2061,
      "Ġcommun": 2062,
      "Ġstyle": 2063,
      "IM": 2064,
      "Ġshe": 2065,
      "orage": 2066,
      "Key": 2067,
      "ational": 2068,
      "Ġref": 2069,
      "ted": 2070,
      "eam": 2071,
      "ĠHT": 2072,
      "Ġlevel": 2073,
      "serv": 2074,
      "sub": 2075,
      "Ġidentify": 2076,
      ".C": 2077,
      "Ġnode": 2078,
      "Ġincluding": 2079,
      "ĉĉĉĉĉ": 2080,
      "Sh": 2081,
      "pi": 2082,
      "soft": 2083,
      "Ġplay": 2084,
      "ood": 2085,
      "Ġrange": 2086,
      "ogle": 2087,
      "andom": 2088,
      "ĠWhen": 2089,
      "Ġdesign": 2090,
      "pre": 2091,
      "ends": 2092,
      "Ġwrit": 2093,
      "TP": 2094,
      "tract": 2095,
      "ero": 2096,
      "Ã©": 2097,
      "ilar": 2098,
      "ru": 2099,
      "begin": 2100,
      "anguage": 2101,
      "input": 2102,
      "ools": 2103,
      "US": 2104,
      "};": 2105,
      "State": 2106,
      "err": 2107,
      "Ġfix": 2108,
      "Ġcalcul": 2109,
      "Ġstill": 2110,
      "':": 2111,
      "vious": 2112,
      "Ġhard": 2113,
      "Ġ-->": 2114,
      "eful": 2115,
      "Ġthread": 2116,
      "ĠTest": 2117,
      "ension": 2118,
      "pha": 2119,
      "miss": 2120,
      "){": 2121,
      "ired": 2122,
      "ynamic": 2123,
      "(d": 2124,
      "Ġconf": 2125,
      "ĠNot": 2126,
      "Ġautom": 2127,
      "list": 2128,
      "ok": 2129,
      "Ġcolor": 2130,
      "ather": 2131,
      "stru": 2132,
      "Ġupdate": 2133,
      "Ġmaking": 2134,
      "Ġorig": 2135,
      "Ġcontext": 2136,
      "Ġdisplay": 2137,
      "cd": 2138,
      "udio": 2139,
      "RO": 2140,
      "reen": 2141,
      "Al": 2142,
      "Ġbel": 2143,
      "Ġlast": 2144,
      "En": 2145,
      "vanced": 2146,
      "pty": 2147,
      "ideo": 2148,
      "Ġcache": 2149,
      "rodu": 2150,
      "oss": 2151,
      "Ġelement": 2152,
      "ope": 2153,
      "ĠOr": 2154,
      "ature": 2155,
      "IS": 2156,
      "Ġmuch": 2157,
      "Or": 2158,
      "Test": 2159,
      "ndex": 2160,
      "uthor": 2161,
      "Ġduring": 2162,
      "ecessary": 2163,
      "xx": 2164,
      "$.": 2165,
      "../../": 2166,
      "Ġlat": 2167,
      "Ġword": 2168,
      "ĠĠĠĠĠĠĠĠĠĠĠĠĠĠĠĠĠĠĠĠĠĠĠĠĠĠĠĠĠĠĠĠĠĠĠĠĠĠĠĠĠ": 2169,
      "})": 2170,
      "elect": 2171,
      "Ġagain": 2172,
      "rows": 2173,
      "Ġanother": 2174,
      "ah": 2175,
      "(c": 2176,
      "={": 2177,
      "ume": 2178,
      "ĠQu": 2179,
      "Ġfinal": 2180,
      "ptim": 2181,
      "ape": 2182,
      "off": 2183,
      "chron": 2184,
      "Ġrepresent": 2185,
      "Ð½": 2186,
      "Ġvery": 2187,
      "atform": 2188,
      "Ġmanagement": 2189,
      "umber": 2190,
      "ĠThese": 2191,
      "oogle": 2192,
      "Ġapproach": 2193,
      "irt": 2194,
      "rypt": 2195,
      "UT": 2196,
      "(p": 2197,
      "icrosoft": 2198,
      "/*": 2199,
      "Ġensuring": 2200,
      ".add": 2201,
      "Ġter": 2202,
      "Ġinitial": 2203,
      "Ġdatabase": 2204,
      "icense": 2205,
      "ness": 2206,
      "Array": 2207,
      "Ġcrit": 2208,
      "me": 2209,
      "vers": 2210,
      "Ġservice": 2211,
      "unc": 2212,
      "ugin": 2213,
      "Ġdel": 2214,
      "****************": 2215,
      "Ġoption": 2216,
      "Ġbest": 2217,
      "ights": 2218,
      "Ġmov": 2219,
      "Ġmethods": 2220,
      "Ġtri": 2221,
      "ĠSec": 2222,
      "Ġke": 2223,
      "If": 2224,
      "Service": 2225,
      "ches": 2226,
      "Ġgraph": 2227,
      "Ġacross": 2228,
      "ements": 2229,
      "Ġsolution": 2230,
      "ynchron": 2231,
      "net": 2232,
      "AP": 2233,
      "cing": 2234,
      "bl": 2235,
      "amples": 2236,
      "Ġdiv": 2237,
      ".x": 2238,
      "result": 2239,
      "ĠThey": 2240,
      "fl": 2241,
      "ternal": 2242,
      "ptions": 2243,
      "ĠĠĠĠĠĠĠĠĠĠĠĠĠĠĠĠĠĠĠĠĠĠĠĠĠĠĠĠĠĠĠĠĠĠĠĠĠĠĠĠĠĠĠ": 2244,
      "estions": 2245,
      "ently": 2246,
      "ĠNew": 2247,
      "ĠCol": 2248,
      "roller": 2249,
      "Ġ\\(": 2250,
      "lish": 2251,
      "ï¼Į": 2252,
      "Form": 2253,
      "\"\"": 2254,
      "As": 2255,
      "Ġport": 2256,
      "java": 2257,
      "#include": 2258,
      "Ġstat": 2259,
      "ĠConfig": 2260,
      ".M": 2261,
      "Ġcert": 2262,
      "ĠIs": 2263,
      "'re": 2264,
      "ttp": 2265,
      "oud": 2266,
      "ited": 2267,
      "ways": 2268,
      "bol": 2269,
      "ormal": 2270,
      "Ġgroup": 2271,
      "els": 2272,
      "-g": 2273,
      "Ġconc": 2274,
      "ponent": 2275,
      "Ġlimit": 2276,
      "Ġ$$": 2277,
      "ism": 2278,
      "lobal": 2279,
      "ained": 2280,
      "ister": 2281,
      "rt": 2282,
      "());": 2283,
      "oh": 2284,
      "ounter": 2285,
      "ĠCl": 2286,
      "Ġreport": 2287,
      "Ad": 2288,
      "alle": 2289,
      "bed": 2290,
      "Ġsoftware": 2291,
      "epend": 2292,
      "ÑĢ": 2293,
      "Ġins": 2294,
      "ires": 2295,
      "Ġnumbers": 2296,
      "AS": 2297,
      "ĠOpen": 2298,
      "we": 2299,
      "test": 2300,
      "ailed": 2301,
      "Ġtimes": 2302,
      "erg": 2303,
      "DB": 2304,
      "Ġes": 2305,
      "Ġinstance": 2306,
      "Ġ<<": 2307,
      "$,": 2308,
      "aid": 2309,
      "formance": 2310,
      "top": 2311,
      "Ġstd": 2312,
      "Ġthose": 2313,
      "Ġret": 2314,
      "Ġuses": 2315,
      "aries": 2316,
      "Event": 2317,
      "Log": 2318,
      "Ġclient": 2319,
      "ators": 2320,
      "Ġtypes": 2321,
      "asks": 2322,
      "ouse": 2323,
      "isplay": 2324,
      "Ġess": 2325,
      "(int": 2326,
      "Ġdue": 2327,
      "Ġsearch": 2328,
      "Ġsur": 2329,
      "Ġ});": 2330,
      "ocol": 2331,
      "Ġbreak": 2332,
      "ivers": 2333,
      "aving": 2334,
      "efault": 2335,
      "Ġher": 2336,
      "Ġsrc": 2337,
      "valid": 2338,
      "'ve": 2339,
      "achine": 2340,
      "Ġtake": 2341,
      "pace": 2342,
      "evelop": 2343,
      "ategies": 2344,
      "odule": 2345,
      "Ġ/>": 2346,
      "ĠServer": 2347,
      "OT": 2348,
      "Ġet": 2349,
      "acy": 2350,
      "Ġmean": 2351,
      "_name": 2352,
      "Info": 2353,
      "ĠLog": 2354,
      "--------------------------------": 2355,
      "Ġrequired": 2356,
      "lice": 2357,
      "/p": 2358,
      "Ġgame": 2359,
      "ren": 2360,
      "Ġsimple": 2361,
      "Ġocc": 2362,
      "ĠMy": 2363,
      "Ġmeas": 2364,
      "onse": 2365,
      "Ġoptions": 2366,
      "######": 2367,
      "angle": 2368,
      "Ġcap": 2369,
      "_F": 2370,
      "Ġparticular": 2371,
      "tal": 2372,
      "eturn": 2373,
      "just": 2374,
      "Ñģ": 2375,
      "Ġspace": 2376,
      "Ġresponse": 2377,
      "ĠBut": 2378,
      "ender": 2379,
      ".st": 2380,
      "Ġown": 2381,
      ".in": 2382,
      "Ġjava": 2383,
      "Ð¾Ð": 2384,
      "encies": 2385,
      "Script": 2386,
      "ason": 2387,
      "search": 2388,
      "Ġelements": 2389,
      "ars": 2390,
      "ested": 2391,
      "ULL": 2392,
      "({": 2393,
      "ething": 2394,
      "(),": 2395,
      "Sub": 2396,
      "ilities": 2397,
      "hent": 2398,
      "_st": 2399,
      "But": 2400,
      "Ġest": 2401,
      "oding": 2402,
      "oci": 2403,
      "Class": 2404,
      "Ġ+=": 2405,
      "omain": 2406,
      "Ġessential": 2407,
      "ymbol": 2408,
      "Ġreduce": 2409,
      "ĠStr": 2410,
      "iction": 2411,
      "Context": 2412,
      "ĠTechniques": 2413,
      "LO": 2414,
      "button": 2415,
      "(self": 2416,
      ".P": 2417,
      "Description": 2418,
      "åı": 2419,
      "ories": 2420,
      "ilt": 2421,
      "uture": 2422,
      "Ġpract": 2423,
      "ebug": 2424,
      "plit": 2425,
      "Ġpack": 2426,
      "object": 2427,
      "ĠDes": 2428,
      "Config": 2429,
      "ĉĉĉĉĉĉĉĉ": 2430,
      "witch": 2431,
      "ended": 2432,
      "Ġaw": 2433,
      "avior": 2434,
      "Ġlength": 2435,
      "Ġsl": 2436,
      "utput": 2437,
      "_r": 2438,
      "ummary": 2439,
      "Ġwrite": 2440,
      "Ġlink": 2441,
      "_D": 2442,
      "ilter": 2443,
      "place": 2444,
      "ambda": 2445,
      "Ġuseful": 2446,
      "Ġfree": 2447,
      "ĠSc": 2448,
      "ips": 2449,
      "essages": 2450,
      "_w": 2451,
      "EX": 2452,
      "function": 2453,
      "())": 2454,
      "AG": 2455,
      "Ġless": 2456,
      "Box": 2457,
      "ooks": 2458,
      "Ġerrors": 2459,
      "Ġstandard": 2460,
      "____": 2461,
      "by": 2462,
      "ift": 2463,
      "Ġrece": 2464,
      "Ġquery": 2465,
      "ĠExample": 2466,
      "ĠUser": 2467,
      "allel": 2468,
      "^{\\": 2469,
      "Ġtitle": 2470,
      "ãĢ": 2471,
      "otential": 2472,
      "Ġpat": 2473,
      "ĠHe": 2474,
      "ming": 2475,
      "man": 2476,
      "Ġenvironment": 2477,
      "System": 2478,
      "SON": 2479,
      "uments": 2480,
      "Ġ||": 2481,
      "ffect": 2482,
      "Ġdi": 2483,
      "exp": 2484,
      "avig": 2485,
      "abled": 2486,
      "-based": 2487,
      "icon": 2488,
      "Ġimp": 2489,
      "Ġroot": 2490,
      "ural": 2491,
      "nb": 2492,
      "Ġwidth": 2493,
      "Ġcharacter": 2494,
      "ĠUS": 2495,
      ".js": 2496,
      "IG": 2497,
      "Ġvarious": 2498,
      "ulation": 2499,
      "ĠThere": 2500,
      "come": 2501,
      "len": 2502,
      "ernel": 2503,
      "ances": 2504,
      "You": 2505,
      "rel": 2506,
      "ately": 2507,
      "Ġblock": 2508,
      "map": 2509,
      "aging": 2510,
      "}(": 2511,
      "Ġfin": 2512,
      "Ġsum": 2513,
      "yz": 2514,
      "Up": 2515,
      "att": 2516,
      "lication": 2517,
      "CE": 2518,
      "\\x": 2519,
      "ĠImplement": 2520,
      "Path": 2521,
      "-time": 2522,
      "Ġpoints": 2523,
      "ĠUs": 2524,
      "Ġpop": 2525,
      "Ġusage": 2526,
      "oolean": 2527,
      "=\\": 2528,
      "day": 2529,
      "Ġdevice": 2530,
      "_g": 2531,
      "emory": 2532,
      "Ġfe": 2533,
      "point": 2534,
      "olutions": 2535,
      "inary": 2536,
      "ole": 2537,
      "alpha": 2538,
      "ocks": 2539,
      "Ġimportant": 2540,
      "jav": 2541,
      "ique": 2542,
      "Ġach": 2543,
      "Ġsettings": 2544,
      "aching": 2545,
      "ants": 2546,
      "Ġsimilar": 2547,
      "Ġworking": 2548,
      "ocus": 2549,
      "Ġsugg": 2550,
      "ived": 2551,
      "Ġobjects": 2552,
      "from": 2553,
      "mer": 2554,
      "CH": 2555,
      "Ġrunning": 2556,
      "IL": 2557,
      "Ġtotal": 2558,
      "anager": 2559,
      "ucial": 2560,
      "!--": 2561,
      "}^{": 2562,
      "(-": 2563,
      ".length": 2564,
      "mail": 2565,
      "ĠInter": 2566,
      "Ġinterface": 2567,
      "Ġide": 2568,
      "Index": 2569,
      "Ġsk": 2570,
      "Ġcalled": 2571,
      "ially": 2572,
      "Ġold": 2573,
      "chan": 2574,
      "flow": 2575,
      "itory": 2576,
      "valu": 2577,
      "Ġsever": 2578,
      "Ġdeb": 2579,
      "Ġavoid": 2580,
      ".log": 2581,
      "oice": 2582,
      "We": 2583,
      "ride": 2584,
      "Map": 2585,
      "ending": 2586,
      "comp": 2587,
      "ffic": 2588,
      "Ġprovided": 2589,
      "ology": 2590,
      "_B": 2591,
      "Ġmap": 2592,
      "Ġmark": 2593,
      "ĠUsing": 2594,
      "Ġtoo": 2595,
      "Ġcrucial": 2596,
      "ĠNo": 2597,
      "Request": 2598,
      "++)": 2599,
      "Ġbas": 2600,
      "Code": 2601,
      "Ġreview": 2602,
      "Ġsomething": 2603,
      "<div": 2604,
      "Ġresources": 2605,
      "Ġmet": 2606,
      "Ġtesting": 2607,
      "Ġtask": 2608,
      "Ġ);": 2609,
      "earch": 2610,
      "Ġver": 2611,
      "PE": 2612,
      "aj": 2613,
      "Ġcur": 2614,
      "Ġworks": 2615,
      "From": 2616,
      "Ġthree": 2617,
      "Ġq": 2618,
      "Ġnecessary": 2619,
      "ĠCode": 2620,
      "Ġoften": 2621,
      "aut": 2622,
      "Ġprodu": 2623,
      "_N": 2624,
      "ither": 2625,
      "Ġvol": 2626,
      "Model": 2627,
      "Ġdefin": 2628,
      "tn": 2629,
      "Comment": 2630,
      "Field": 2631,
      "por": 2632,
      "ĠID": 2633,
      "Ġvariable": 2634,
      "med": 2635,
      "mathcal": 2636,
      "Ġmade": 2637,
      "Ġprob": 2638,
      "Ġreally": 2639,
      "ready": 2640,
      "Ġmodels": 2641,
      "Ġseem": 2642,
      "ĠComp": 2643,
      "Ġminim": 2644,
      "ird": 2645,
      "()`": 2646,
      "ĠVal": 2647,
      "Color": 2648,
      "true": 2649,
      "ides": 2650,
      "Ġsay": 2651,
      "ĠSp": 2652,
      "Ġplace": 2653,
      "Input": 2654,
      "uffer": 2655,
      "[\"": 2656,
      "ĠCons": 2657,
      "osts": 2658,
      "Ġprocessing": 2659,
      "}_{": 2660,
      "lib": 2661,
      "Ġsent": 2662,
      "${": 2663,
      "(i": 2664,
      "lient": 2665,
      "eq": 2666,
      "########": 2667,
      "Ġche": 2668,
      "Ġspecified": 2669,
      "_h": 2670,
      "Ġoriginal": 2671,
      "Ġenh": 2672,
      "image": 2673,
      "version": 2674,
      "Is": 2675,
      "irtual": 2676,
      ".D": 2677,
      "Ġeng": 2678,
      "Hand": 2679,
      "Ġpotential": 2680,
      "ĠGener": 2681,
      "ĠRec": 2682,
      "UN": 2683,
      "Ġne": 2684,
      "ategory": 2685,
      ".ex": 2686,
      "Ġchall": 2687,
      "oring": 2688,
      "atterns": 2689,
      "char": 2690,
      "Ġbit": 2691,
      "Ġì": 2692,
      "ries": 2693,
      "df": 2694,
      "Ġyears": 2695,
      "ĠIN": 2696,
      "ipp": 2697,
      "Trans": 2698,
      "/g": 2699,
      "Ġfrequ": 2700,
      "Ġpred": 2701,
      "OP": 2702,
      "Ġmatch": 2703,
      "åĪ": 2704,
      "trans": 2705,
      "Ġhandling": 2706,
      "Ġdirectory": 2707,
      "Ġsince": 2708,
      "resh": 2709,
      "Ġ;": 2710,
      "Ġrele": 2711,
      "ĠCan": 2712,
      "Ġaround": 2713,
      "Ġfeature": 2714,
      "Ġprevent": 2715,
      "ital": 2716,
      "ĠĠĠĠĠĠĠĠĠĠĠĠĠĠĠĠĠĠĠĠĠĠĠĠĠĠĠĠĠĠĠĠĠĠĠĠĠĠĠĠĠĠĠĠĠ": 2717,
      "\".": 2718,
      "ĠSim": 2719,
      "Ġmechan": 2720,
      "Ġaccount": 2721,
      "Ġlibrary": 2722,
      "Ġindic": 2723,
      "ascript": 2724,
      "Ġrecord": 2725,
      "Ġsequ": 2726,
      ".app": 2727,
      "Ġabove": 2728,
      "Of": 2729,
      "Ġmanage": 2730,
      "ention": 2731,
      "Ġnames": 2732,
      "Ġred": 2733,
      "ĠCal": 2734,
      "Ġwhe": 2735,
      "\\n": 2736,
      "\\end": 2737,
      "alk": 2738,
      "Element": 2739,
      "tes": 2740,
      "ĠTrans": 2741,
      "ypes": 2742,
      "Ġdem": 2743,
      "nbsp": 2744,
      "ĠWork": 2745,
      "Ġposition": 2746,
      "Char": 2747,
      "etch": 2748,
      "CP": 2749,
      "_data": 2750,
      "Ġanalysis": 2751,
      "IP": 2752,
      "ration": 2753,
      "Ġincludes": 2754,
      "iness": 2755,
      "SD": 2756,
      "db": 2757,
      "RL": 2758,
      "Ġ]": 2759,
      "Ġperson": 2760,
      "Ġdone": 2761,
      "Ġauth": 2762,
      "Ġresource": 2763,
      "ĠAut": 2764,
      "Ġdevelopment": 2765,
      "CD": 2766,
      "ĠEng": 2767,
      "Ġsche": 2768,
      "link": 2769,
      "itoring": 2770,
      "Ġ...": 2771,
      "ife": 2772,
      "Ġsuccess": 2773,
      "Ġmodule": 2774,
      "Ġadditional": 2775,
      "ä»": 2776,
      "ĠDo": 2777,
      "Ġmode": 2778,
      "Ġbutton": 2779,
      "oose": 2780,
      "ĠFile": 2781,
      "ĠHand": 2782,
      "Ġpackage": 2783,
      "Ġcreating": 2784,
      "ln": 2785,
      "Ġfail": 2786,
      "Ġ:=": 2787,
      "Ġparameters": 2788,
      "icy": 2789,
      ".r": 2790,
      "older": 2791,
      "Ġvariables": 2792,
      "Ġfont": 2793,
      "Ġ/*": 2794,
      ".N": 2795,
      "EM": 2796,
      "isk": 2797,
      "Ġseveral": 2798,
      "Ġalways": 2799,
      "elta": 2800,
      "Ġstructure": 2801,
      "Ġinstead": 2802,
      "\"]": 2803,
      "Ġclear": 2804,
      "Pr": 2805,
      "ĠLinux": 2806,
      "ynt": 2807,
      "Ph": 2808,
      "Ġcare": 2809,
      "ĠSQL": 2810,
      "ĠOptim": 2811,
      "idget": 2812,
      "Ġchild": 2813,
      "OL": 2814,
      "arr": 2815,
      "Size": 2816,
      "Ġcritical": 2817,
      "Ġfull": 2818,
      "ĠĠĠĠĠĠĠĠĠĠĠĠĠĠĠĠĠĠĠĠĠĠĠĠĠĠĠĠĠĠĠĠĠĠĠĠĠĠĠĠĠĠĠĠĠĠĠ": 2819,
      "SP": 2820,
      "my": 2821,
      "usion": 2822,
      "fficient": 2823,
      "Ġdiscuss": 2824,
      "python": 2825,
      "Ġcopy": 2826,
      "/b": 2827,
      "ĠAll": 2828,
      "Ġensures": 2829,
      "/w": 2830,
      "Ġlow": 2831,
      "stance": 2832,
      "ĠPython": 2833,
      "Ġbehavior": 2834,
      ")\\": 2835,
      "server": 2836,
      "pm": 2837,
      "Ġgreat": 2838,
      "ral": 2839,
      "_i": 2840,
      "ilder": 2841,
      "Button": 2842,
      "Ġkeep": 2843,
      "Ġtrack": 2844,
      "down": 2845,
      "ĠPh": 2846,
      "apping": 2847,
      "Ġsection": 2848,
      "Message": 2849,
      "ository": 2850,
      "Over": 2851,
      "Ġheight": 2852,
      "ĉpublic": 2853,
      "ĠCPU": 2854,
      "Ġrender": 2855,
      "itect": 2856,
      "Ġvers": 2857,
      "Ġlearning": 2858,
      "iter": 2859,
      "sum": 2860,
      "Ġprof": 2861,
      "Ġexperience": 2862,
      "adi": 2863,
      "Act": 2864,
      "api": 2865,
      "dit": 2866,
      "Ġhapp": 2867,
      "abilities": 2868,
      "no": 2869,
      "query": 2870,
      "Ġdoesn": 2871,
      "javascript": 2872,
      "DF": 2873,
      "ING": 2874,
      "Ġexc": 2875,
      "ĠCustom": 2876,
      "vant": 2877,
      "Ġaccur": 2878,
      "Ġscen": 2879,
      "ãĤ": 2880,
      "rior": 2881,
      "TR": 2882,
      "Ġarch": 2883,
      "Ġintrodu": 2884,
      "xt": 2885,
      "Att": 2886,
      "ĠâĢĵ": 2887,
      ")**": 2888,
      "Ġear": 2889,
      "ĠGet": 2890,
      "std": 2891,
      ".R": 2892,
      "max": 2893,
      "ght": 2894,
      "Ġben": 2895,
      "Ġdate": 2896,
      "active": 2897,
      "Ġallowing": 2898,
      "Ġcar": 2899,
      "IR": 2900,
      "vis": 2901,
      "æľ": 2902,
      "Ġsort": 2903,
      "Ġsepar": 2904,
      "Ġvia": 2905,
      "Ġfew": 2906,
      "assword": 2907,
      "Ġbase": 2908,
      ",\\": 2909,
      "Ġdig": 2910,
      "ithub": 2911,
      "Ġloop": 2912,
      "ied": 2913,
      "Ġspeed": 2914,
      "Comm": 2915,
      "Ġ((": 2916,
      "ieve": 2917,
      "Ġsure": 2918,
      "ites": 2919,
      "ĠOne": 2920,
      "define": 2921,
      "Ġdefined": 2922,
      "Ġmeans": 2923,
      "sl": 2924,
      "urther": 2925,
      "ump": 2926,
      "ret": 2927,
      ")/": 2928,
      "uster": 2929,
      "Ġlanguage": 2930,
      "-st": 2931,
      "apter": 2932,
      "root": 2933,
      "Ġ()": 2934,
      "Ġcomponents": 2935,
      "Ġneeded": 2936,
      "Ġneeds": 2937,
      "ifying": 2938,
      "izes": 2939,
      "Ġbal": 2940,
      "Ġtechn": 2941,
      "part": 2942,
      ",\"": 2943,
      "Ġ<=": 2944,
      "mu": 2945,
      "evice": 2946,
      "ĠOver": 2947,
      "select": 2948,
      "Ġwindow": 2949,
      "open": 2950,
      "Ġcard": 2951,
      "pect": 2952,
      "width": 2953,
      "Ġfilter": 2954,
      "inter": 2955,
      "yles": 2956,
      "Ġday": 2957,
      "ek": 2958,
      "iod": 2959,
      "ĠIP": 2960,
      "Ġalready": 2961,
      "Ġmatrix": 2962,
      "uf": 2963,
      "Ġsaid": 2964,
      "ograph": 2965,
      "ãĥ": 2966,
      "ference": 2967,
      "Ġpresent": 2968,
      "Ġprevious": 2969,
      "Ġappear": 2970,
      "uid": 2971,
      "Image": 2972,
      "OD": 2973,
      "All": 2974,
      "table": 2975,
      "(b": 2976,
      "Read": 2977,
      "title": 2978,
      "Inter": 2979,
      "path": 2980,
      "Ġstream": 2981,
      "ĠMon": 2982,
      "Ġlabel": 2983,
      "================": 2984,
      "Ġ/**": 2985,
      "UI": 2986,
      "Ġservices": 2987,
      "Ġclos": 2988,
      "NS": 2989,
      "package": 2990,
      "annel": 2991,
      "actions": 2992,
      "CC": 2993,
      "Ġemail": 2994,
      "ancing": 2995,
      "Sc": 2996,
      "Manager": 2997,
      "aterial": 2998,
      "Ġrow": 2999,
      ".L": 3000,
      "Ġteam": 3001,
      "Ġwhether": 3002,
      "ours": 3003,
      "Ġla": 3004,
      "AA": 3005,
      "Ġtasks": 3006,
      "ĠEns": 3007,
      "Ġdevelopers": 3008,
      "anel": 3009,
      "Ġproperty": 3010,
      "Ġtests": 3011,
      "Ġ\\\\": 3012,
      "ring": 3013,
      "ĉĉĉĉĉĉ": 3014,
      "ottom": 3015,
      "ats": 3016,
      ".print": 3017,
      "Ġrequires": 3018,
      "ĠError": 3019,
      "ĠDec": 3020,
      "unt": 3021,
      "eter": 3022,
      "Ġaction": 3023,
      "anks": 3024,
      "alled": 3025,
      "pg": 3026,
      "Ġpres": 3027,
      "ĠFunction": 3028,
      "Ġ(!": 3029,
      "spec": 3030,
      "Result": 3031,
      "Ġconsole": 3032,
      "ialog": 3033,
      ".util": 3034,
      "Ġrate": 3035,
      "qrt": 3036,
      "usiness": 3037,
      "untime": 3038,
      "Ent": 3039,
      "////////": 3040,
      "Ġdefine": 3041,
      "Ġloc": 3042,
      "ticle": 3043,
      "rep": 3044,
      "Hel": 3045,
      "md": 3046,
      "Ġnums": 3047,
      "ĠManagement": 3048,
      "How": 3049,
      "Ref": 3050,
      "Ġstep": 3051,
      "respon": 3052,
      "rowser": 3053,
      "ĠPerformance": 3054,
      "Ġcreated": 3055,
      "Ġscal": 3056,
      "hentication": 3057,
      "cond": 3058,
      "ands": 3059,
      "Ġvector": 3060,
      "arm": 3061,
      "Ġconditions": 3062,
      "Ġalgorithms": 3063,
      "ean": 3064,
      "section": 3065,
      "anch": 3066,
      "ĠThat": 3067,
      "ci": 3068,
      "Ġmiss": 3069,
      "Ġsteps": 3070,
      "([": 3071,
      "fs": 3072,
      "/**": 3073,
      "Ġshort": 3074,
      "Ġpur": 3075,
      "otal": 3076,
      "-h": 3077,
      "Ġworld": 3078,
      "Not": 3079,
      "Ġmove": 3080,
      "Ġreducing": 3081,
      "Ġalgorithm": 3082,
      "light": 3083,
      "ĠIntegr": 3084,
      "Ġproperties": 3085,
      "Ġbuff": 3086,
      "Ġupdates": 3087,
      "Ġ`/": 3088,
      "ipel": 3089,
      "ĠDef": 3090,
      "'ll": 3091,
      "Ġbeg": 3092,
      "ĠReturn": 3093,
      "Ġmessages": 3094,
      "ĠDevelop": 3095,
      "ched": 3096,
      "Ġdevices": 3097,
      "âĢĿ": 3098,
      "acing": 3099,
      "Count": 3100,
      "Ġflex": 3101,
      "SQL": 3102,
      "Ġscreen": 3103,
      "ĠNULL": 3104,
      "Ġprom": 3105,
      "idden": 3106,
      "Ġimages": 3107,
      "ven": 3108,
      "inks": 3109,
      "Ġreturns": 3110,
      "mathbf": 3111,
      "-to": 3112,
      "change": 3113,
      ".B": 3114,
      "oto": 3115,
      "Ġ$(": 3116,
      "Ġbackground": 3117,
      "Alice": 3118,
      "ĠÂł": 3119,
      "adata": 3120,
      "Ġrespons": 3121,
      "Ġcell": 3122,
      "Ġ};": 3123,
      "Ġque": 3124,
      "Ġevents": 3125,
      "ĠMicrosoft": 3126,
      "vector": 3127,
      "-cont": 3128,
      "istic": 3129,
      "âĢĶ": 3130,
      "Ġdetails": 3131,
      "Ġrout": 3132,
      "Ġbo": 3133,
      "Gener": 3134,
      "Ġbound": 3135,
      "yc": 3136,
      "Ġnodes": 3137,
      "Ġapply": 3138,
      "ĠKey": 3139,
      "ohn": 3140,
      "igma": 3141,
      "Ġeither": 3142,
      "ium": 3143,
      "ĠClass": 3144,
      "Ġmakes": 3145,
      "ĠAM": 3146,
      "Ġmachine": 3147,
      "atabase": 3148,
      "With": 3149,
      "Ġconnection": 3150,
      "Ġsn": 3151,
      "ores": 3152,
      "Ġable": 3153,
      "Ġreli": 3154,
      "ega": 3155,
      "mathbb": 3156,
      "ĠRed": 3157,
      "ric": 3158,
      "amma": 3159,
      "Point": 3160,
      "Ġtell": 3161,
      "(new": 3162,
      "Ġcomponent": 3163,
      "Ġcorrectly": 3164,
      "Response": 3165,
      "option": 3166,
      "Ġinc": 3167,
      "At": 3168,
      "Ġdouble": 3169,
      "Ġrest": 3170,
      "}_": 3171,
      "sec": 3172,
      "Ġvideo": 3173,
      "ATE": 3174,
      "Ġrandom": 3175,
      "ibraries": 3176,
      "count": 3177,
      "hip": 3178,
      "Ġneg": 3179,
      "HT": 3180,
      "ĠLicense": 3181,
      "hel": 3182,
      "Ġbug": 3183,
      "Ġ($": 3184,
      "Table": 3185,
      "ĠAnal": 3186,
      "ĠInitial": 3187,
      "roups": 3188,
      "Ġamount": 3189,
      "tings": 3190,
      "._": 3191,
      "cho": 3192,
      "åħ": 3193,
      "Ġder": 3194,
      "No": 3195,
      "pecially": 3196,
      "Ġpowerful": 3197,
      "ĠDe": 3198,
      "ĠCreate": 3199,
      "uck": 3200,
      "Ġimplementation": 3201,
      "Ġstorage": 3202,
      "Ġwhy": 3203,
      "Ġsens": 3204,
      "-\\": 3205,
      "Ġdebug": 3206,
      "-n": 3207,
      "iling": 3208,
      "HE": 3209,
      "ĠRem": 3210,
      "Fr": 3211,
      "level": 3212,
      "æķ": 3213,
      "ĠType": 3214,
      "/j": 3215,
      "ĠSub": 3216,
      "ĠReg": 3217,
      "Ġarr": 3218,
      "kn": 3219,
      "Ġrequests": 3220,
      "obile": 3221,
      "ought": 3222,
      "pload": 3223,
      "alth": 3224,
      "eedback": 3225,
      "Ġjob": 3226,
      "Rec": 3227,
      "Ġ${": 3228,
      "Ġparameter": 3229,
      "uilder": 3230,
      "site": 3231,
      "ributes": 3232,
      "Ġcannot": 3233,
      "And": 3234,
      "Ġsignificantly": 3235,
      "Ġorgan": 3236,
      "\\begin": 3237,
      "Content": 3238,
      "ished": 3239,
      "ĠObject": 3240,
      "etric": 3241,
      "Ġadjust": 3242,
      "Ġarea": 3243,
      "ĠBl": 3244,
      "nection": 3245,
      "atically": 3246,
      "ourse": 3247,
      "format": 3248,
      "iving": 3249,
      "./": 3250,
      "Ġcases": 3251,
      "Line": 3252,
      "à¤": 3253,
      "ination": 3254,
      "Ġproblems": 3255,
      "-S": 3256,
      "Ġcolumn": 3257,
      "straint": 3258,
      "Ġlight": 3259,
      "Ġsecure": 3260,
      "Ġ///": 3261,
      "Ġclean": 3262,
      "cks": 3263,
      "tle": 3264,
      "(String": 3265,
      "ĠIss": 3266,
      "etrics": 3267,
      "Ġleast": 3268,
      "imation": 3269,
      "xy": 3270,
      "ename": 3271,
      "Ġtim": 3272,
      "/f": 3273,
      "empt": 3274,
      "ĠSpec": 3275,
      "bs": 3276,
      "ĠJSON": 3277,
      "verse": 3278,
      "Ġhim": 3279,
      "Ġchalleng": 3280,
      "event": 3281,
      "ĠForm": 3282,
      "nc": 3283,
      "Group": 3284,
      "ding": 3285,
      "Ġespecially": 3286,
      "Ġalign": 3287,
      "idual": 3288,
      "imary": 3289,
      "Ġcertain": 3290,
      "äº": 3291,
      "Ġbox": 3292,
      "iki": 3293,
      "gress": 3294,
      "Ġsuper": 3295,
      "asing": 3296,
      "ENT": 3297,
      "iler": 3298,
      "Ġsite": 3299,
      "Ġuntil": 3300,
      "agn": 3301,
      "Comp": 3302,
      "ĠCheck": 3303,
      "ĠMod": 3304,
      "isms": 3305,
      "åĲ": 3306,
      "Ġdescri": 3307,
      "imal": 3308,
      "static": 3309,
      "cent": 3310,
      "argin": 3311,
      "MS": 3312,
      "/>": 3313,
      "iev": 3314,
      "ĠInstall": 3315,
      "cpp": 3316,
      "ĠCre": 3317,
      "Ġadded": 3318,
      "Ġgoing": 3319,
      "PL": 3320,
      "Ġthings": 3321,
      "tra": 3322,
      "ĠURL": 3323,
      "Ġask": 3324,
      "ocket": 3325,
      "Ġpositive": 3326,
      "pri": 3327,
      "lambda": 3328,
      "Select": 3329,
      "Ġplatform": 3330,
      "ixed": 3331,
      "Ġparticularly": 3332,
      "verage": 3333,
      "Ġlarg": 3334,
      "init": 3335,
      "Ġrelated": 3336,
      "Ġstack": 3337,
      "amed": 3338,
      "elete": 3339,
      "oke": 3340,
      "ety": 3341,
      "Web": 3342,
      "Ġpatterns": 3343,
      "=\"#": 3344,
      "Ġput": 3345,
      "else": 3346,
      "ifier": 3347,
      "Ð»": 3348,
      "Ġside": 3349,
      "Ġstatus": 3350,
      "Ġexpected": 3351,
      "struction": 3352,
      "irection": 3353,
      "ĠYour": 3354,
      "Ġquestions": 3355,
      "Ġplan": 3356,
      "ists": 3357,
      "Ġmonth": 3358,
      "Reg": 3359,
      "It": 3360,
      "de": 3361,
      "request": 3362,
      "Ġdirectly": 3363,
      "Method": 3364,
      "Cl": 3365,
      "Query": 3366,
      "Ġoffer": 3367,
      "aring": 3368,
      "ĠPre": 3369,
      "Ġassoci": 3370,
      "ĠPar": 3371,
      "istory": 3372,
      "ĠRef": 3373,
      "ui": 3374,
      "ĠRev": 3375,
      "ably": 3376,
      "cale": 3377,
      "Ġcost": 3378,
      "body": 3379,
      "Ġattack": 3380,
      "Ġimpact": 3381,
      "era": 3382,
      "Ġterms": 3383,
      "CL": 3384,
      "eh": 3385,
      "âĢĻt": 3386,
      "android": 3387,
      ".sh": 3388,
      "ĠĠĠĠĠĠĠĠĠĠĠĠĠĠĠĠĠĠĠĠĠĠĠĠĠĠĠĠĠĠĠĠĠĠĠĠĠĠĠĠĠĠĠĠĠĠĠĠĠ": 3389,
      "adding": 3390,
      "base": 3391,
      "phi": 3392,
      "Ġmaximum": 3393,
      "Ġhash": 3394,
      "gs": 3395,
      "}.": 3396,
      "Ġdownload": 3397,
      "Ġtra": 3398,
      "ointer": 3399,
      "used": 3400,
      "Ġdistribution": 3401,
      "eries": 3402,
      "ux": 3403,
      "acle": 3404,
      "iddle": 3405,
      "Component": 3406,
      "Ġrelease": 3407,
      "number": 3408,
      ".A": 3409,
      "_to": 3410,
      "Ġsimpl": 3411,
      "Ġdiff": 3412,
      "ients": 3413,
      "Ġwr": 3414,
      "ored": 3415,
      "Ġhost": 3416,
      "osition": 3417,
      "Ġtree": 3418,
      "Ġproper": 3419,
      "Ġparent": 3420,
      "_L": 3421,
      ".out": 3422,
      "Ġturn": 3423,
      "heet": 3424,
      ")`": 3425,
      "orth": 3426,
      "Ġcirc": 3427,
      "ves": 3428,
      "Ġlik": 3429,
      "Ġtransform": 3430,
      "Ġfocus": 3431,
      "Ġrole": 3432,
      "\").": 3433,
      "Ġdeploy": 3434,
      "align": 3435,
      "Bob": 3436,
      "ifies": 3437,
      "ensions": 3438,
      "ÂłÂłÂłÂł": 3439,
      "è¿": 3440,
      "process": 3441,
      "ermine": 3442,
      "Ġstrategies": 3443,
      "Ġfuture": 3444,
      "py": 3445,
      "Ġhaving": 3446,
      "mod": 3447,
      "ĠSupport": 3448,
      ".e": 3449,
      "Ġpassword": 3450,
      "Ġversions": 3451,
      "Ġ===": 3452,
      "ĠDet": 3453,
      "Ġquick": 3454,
      "My": 3455,
      "amily": 3456,
      "ãĢĤ": 3457,
      "Ġdele": 3458,
      "Ġlot": 3459,
      "Ġpay": 3460,
      "iment": 3461,
      "Ġparallel": 3462,
      "Ġexpress": 3463,
      "Ġdynamic": 3464,
      "Number": 3465,
      "ĠâĢľ": 3466,
      "II": 3467,
      "gle": 3468,
      "mark": 3469,
      "iff": 3470,
      "Ġdependencies": 3471,
      "UE": 3472,
      "ĠDate": 3473,
      "Status": 3474,
      "arp": 3475,
      "Example": 3476,
      "irm": 3477,
      "Ġgot": 3478,
      "Ġfields": 3479,
      "Ġunique": 3480,
      "Ġrules": 3481,
      "Per": 3482,
      "Ġrecomm": 3483,
      "]);": 3484,
      "ND": 3485,
      "Ġmaintain": 3486,
      ".id": 3487,
      "anges": 3488,
      "imate": 3489,
      "CM": 3490,
      "Ġauthor": 3491,
      "Ġassert": 3492,
      "});": 3493,
      "nal": 3494,
      "LS": 3495,
      "ĠHTML": 3496,
      "local": 3497,
      "Ġgenerate": 3498,
      "Ġknown": 3499,
      "etry": 3500,
      "Ġcontains": 3501,
      "yntax": 3502,
      "Ġgive": 3503,
      "ĠĠĠĠĠĠĠĠĠĠĠĠĠĠĠĠĠĠĠĠĠĠĠĠĠĠĠĠĠĠĠĠĠĠĠĠĠĠĠĠĠĠĠĠĠĠĠĠĠĠĠ": 3504,
      "Ġunit": 3505,
      "<td": 3506,
      "AX": 3507,
      "Ġcompat": 3508,
      "ĠConfiguration": 3509,
      "blem": 3510,
      "ownload": 3511,
      "ude": 3512,
      "Ġcharacters": 3513,
      "Ġfurther": 3514,
      "ĠGoogle": 3515,
      "Ġdistributed": 3516,
      "Ġdocumentation": 3517,
      "ordin": 3518,
      "ording": 3519,
      "/t": 3520,
      "Ġquant": 3521,
      "ĠDr": 3522,
      "Ġnp": 3523,
      "Ġexisting": 3524,
      "size": 3525,
      "ĠNetwork": 3526,
      "ĉc": 3527,
      "Rep": 3528,
      "wise": 3529,
      "erc": 3530,
      ".net": 3531,
      "Ġevalu": 3532,
      "ä½": 3533,
      "Ġhttp": 3534,
      "Des": 3535,
      ">(": 3536,
      "Ġinteger": 3537,
      "ĠProcess": 3538,
      "space": 3539,
      "late": 3540,
      "EE": 3541,
      "ĠAss": 3542,
      "Ġsupp": 3543,
      "itionally": 3544,
      "IF": 3545,
      "style": 3546,
      "Ġswitch": 3547,
      "Ġprotocol": 3548,
      "hat": 3549,
      "gen": 3550,
      ")(": 3551,
      "oll": 3552,
      "ĠArray": 3553,
      "Ġconstruct": 3554,
      "Ġlearn": 3555,
      "Page": 3556,
      "book": 3557,
      "Ġrob": 3558,
      "ĠModel": 3559,
      "#define": 3560,
      "ooth": 3561,
      "Us": 3562,
      "ĠAccess": 3563,
      "Stream": 3564,
      ".T": 3565,
      "arameters": 3566,
      "cel": 3567,
      "(a": 3568,
      "eak": 3569,
      "Ġproviding": 3570,
      "Ġsqu": 3571,
      "Ġeasy": 3572,
      "Ġflow": 3573,
      "ĠTools": 3574,
      "ĠPM": 3575,
      "thers": 3576,
      "Ġcorrespon": 3577,
      "Ġenerg": 3578,
      "ĠProject": 3579,
      "UL": 3580,
      "Ġrepl": 3581,
      "pth": 3582,
      "iency": 3583,
      "arrow": 3584,
      "ĠMay": 3585,
      "-r": 3586,
      "ryption": 3587,
      "ĠText": 3588,
      "Here": 3589,
      "Ġdatas": 3590,
      "Ġsetup": 3591,
      "FFFF": 3592,
      "aper": 3593,
      "ident": 3594,
      "çĶ": 3595,
      "ĊĊĊĊ": 3596,
      "ĠJavaScript": 3597,
      "Ġecho": 3598,
      "Ġwon": 3599,
      "umns": 3600,
      "igure": 3601,
      "ĠFl": 3602,
      "Ġitems": 3603,
      "<int": 3604,
      "ynchronous": 3605,
      "ermin": 3606,
      "Ġobt": 3607,
      "Ġcatch": 3608,
      "Ġreference": 3609,
      "Ġremov": 3610,
      "Ġlines": 3611,
      "Ġbuffer": 3612,
      "Ġindiv": 3613,
      "alls": 3614,
      "When": 3615,
      "Ġclick": 3616,
      "Ġmeasure": 3617,
      "afe": 3618,
      "He": 3619,
      ".is": 3620,
      "Ġlen": 3621,
      "Ġbro": 3622,
      "Ġimproving": 3623,
      "Ġinf": 3624,
      "_R": 3625,
      "unch": 3626,
      "Ġ\"\"\"": 3627,
      "inding": 3628,
      "standing": 3629,
      "Create": 3630,
      "Ġtre": 3631,
      "ĠEd": 3632,
      "GB": 3633,
      "Ġsupports": 3634,
      "ĠWith": 3635,
      "Ġgeneral": 3636,
      "mission": 3637,
      "Ġsequence": 3638,
      "Ġquality": 3639,
      "ĠPC": 3640,
      ".y": 3641,
      "ĠTime": 3642,
      "arams": 3643,
      "-B": 3644,
      "Start": 3645,
      "ones": 3646,
      "creen": 3647,
      "Ġscenari": 3648,
      "color": 3649,
      "_V": 3650,
      "').": 3651,
      "Ġequal": 3652,
      "ĠMac": 3653,
      "Ġunderstanding": 3654,
      "rl": 3655,
      "Ġtakes": 3656,
      "_type": 3657,
      "å®": 3658,
      "Ġagainst": 3659,
      "Ġnormal": 3660,
      "Ġcontin": 3661,
      "Ġframework": 3662,
      "Ġoptimize": 3663,
      "ges": 3664,
      "Ġbook": 3665,
      "export": 3666,
      "Ġbig": 3667,
      "Ġautomatically": 3668,
      "Ġanalyz": 3669,
      "ĠSecurity": 3670,
      "ĠOS": 3671,
      "Ġreason": 3672,
      "Ġsolutions": 3673,
      "_IN": 3674,
      "ogn": 3675,
      "ĠUnder": 3676,
      "ouch": 3677,
      "unk": 3678,
      "Ġinterest": 3679,
      "Controller": 3680,
      "Ġbelow": 3681,
      "Ġexecution": 3682,
      "riend": 3683,
      "Ġexact": 3684,
      "Ġremove": 3685,
      "ktop": 3686,
      ".append": 3687,
      "Ġcover": 3688,
      "Ġlogic": 3689,
      "Ġplugin": 3690,
      "Ġfloat": 3691,
      "Ġstructures": 3692,
      "olor": 3693,
      "Ġelect": 3694,
      "Pre": 3695,
      "que": 3696,
      "Em": 3697,
      "Ġkernel": 3698,
      "}^": 3699,
      "End": 3700,
      "sequ": 3701,
      "Client": 3702,
      "Ġhardware": 3703,
      "Ġrespect": 3704,
      "\",\"": 3705,
      "lections": 3706,
      "HP": 3707,
      "Check": 3708,
      "apper": 3709,
      "bit": 3710,
      "fully": 3711,
      "ĠPost": 3712,
      "ĠAt": 3713,
      "ĠÃ": 3714,
      "aa": 3715,
      "Ġfeel": 3716,
      "where": 3717,
      "olds": 3718,
      "ĠBuild": 3719,
      "Ġbuilt": 3720,
      "way": 3721,
      "Sp": 3722,
      "upport": 3723,
      "ĠControl": 3724,
      "js": 3725,
      "Ġonce": 3726,
      "ĠView": 3727,
      "Output": 3728,
      "ĠHTTP": 3729,
      "FS": 3730,
      "eatures": 3731,
      "izer": 3732,
      "Ġcent": 3733,
      "ĠConsider": 3734,
      "]:": 3735,
      "Ġtrying": 3736,
      "Ġcoll": 3737,
      "Ġvisual": 3738,
      "olved": 3739,
      "æķ°": 3740,
      "Ġappropri": 3741,
      "What": 3742,
      "side": 3743,
      "go": 3744,
      "Ġiter": 3745,
      "ptr": 3746,
      "Ġlocation": 3747,
      "ĠVersion": 3748,
      "_v": 3749,
      "Ġsession": 3750,
      "AME": 3751,
      "iate": 3752,
      "mt": 3753,
      "nav": 3754,
      "ĠRE": 3755,
      ".png": 3756,
      "ĠCalcul": 3757,
      "New": 3758,
      "Ġconvert": 3759,
      ")}": 3760,
      "Ġperiod": 3761,
      ".con": 3762,
      "gt": 3763,
      "Ġcombin": 3764,
      "ounds": 3765,
      "isual": 3766,
      "Ġbool": 3767,
      "sqrt": 3768,
      "Ġenergy": 3769,
      "ĠXML": 3770,
      "une": 3771,
      "_size": 3772,
      "ĠAct": 3773,
      "PC": 3774,
      "bf": 3775,
      "apache": 3776,
      "ĠGit": 3777,
      "client": 3778,
      ".pro": 3779,
      "Action": 3780,
      "istics": 3781,
      "+\\": 3782,
      "ĉint": 3783,
      "ula": 3784,
      "height": 3785,
      "Ġedit": 3786,
      "Ġvirtual": 3787,
      "obj": 3788,
      "<p": 3789,
      "FA": 3790,
      "Write": 3791,
      "Ġoperation": 3792,
      "abs": 3793,
      "ĠInd": 3794,
      ".php": 3795,
      "abling": 3796,
      "ĠNone": 3797,
      "Ġentire": 3798,
      "ĠRep": 3799,
      "Ġbuilding": 3800,
      "SL": 3801,
      "imension": 3802,
      "Ġnever": 3803,
      "font": 3804,
      "host": 3805,
      "(this": 3806,
      "images": 3807,
      "Ġalong": 3808,
      "structions": 3809,
      "Ġ\\)": 3810,
      "Ġbenef": 3811,
      "ged": 3812,
      "ute": 3813,
      "ĠMethod": 3814,
      "Source": 3815,
      "ĠUpdate": 3816,
      "actory": 3817,
      "Ġthough": 3818,
      "Ġhigher": 3819,
      "Ġequation": 3820,
      "Ġdesigned": 3821,
      "private": 3822,
      "aced": 3823,
      "è¯": 3824,
      "So": 3825,
      "ĠStud": 3826,
      "Ġcomplete": 3827,
      "overy": 3828,
      "Ġsol": 3829,
      "Ġexpect": 3830,
      "ided": 3831,
      "UM": 3832,
      "opt": 3833,
      "%%": 3834,
      "Link": 3835,
      "ho": 3836,
      "Sec": 3837,
      ".println": 3838,
      "pose": 3839,
      "Ġkeys": 3840,
      "å¤": 3841,
      "ĠReal": 3842,
      "æĸ": 3843,
      "Ġsend": 3844,
      "æĺ": 3845,
      "Ġarchitect": 3846,
      "Ġboot": 3847,
      "args": 3848,
      "ĠMin": 3849,
      "arb": 3850,
      "Ġoverhead": 3851,
      "raft": 3852,
      "boot": 3853,
      "Ġvert": 3854,
      "Str": 3855,
      "Ġarticle": 3856,
      "beta": 3857,
      ".F": 3858,
      "ival": 3859,
      "dev": 3860,
      "ĠUI": 3861,
      "Ġop": 3862,
      "Ġfore": 3863,
      "omic": 3864,
      ".re": 3865,
      "Ġlater": 3866,
      "Ġinstalled": 3867,
      "lied": 3868,
      "ĠAdvanced": 3869,
      "null": 3870,
      "Ġspecial": 3871,
      "ene": 3872,
      "ĠAfter": 3873,
      "Equ": 3874,
      "Ġindividual": 3875,
      "Ġshared": 3876,
      "]]": 3877,
      "Ġdraw": 3878,
      "grad": 3879,
      "-M": 3880,
      "Ġadding": 3881,
      "oper": 3882,
      "alf": 3883,
      "Ġ$$\\": 3884,
      "usr": 3885,
      "Ġfunctionality": 3886,
      "ĠPart": 3887,
      "_list": 3888,
      "untu": 3889,
      "_pro": 3890,
      "ĠEnsure": 3891,
      "Ð°Ð": 3892,
      "Ġobserv": 3893,
      "emb": 3894,
      "Ġcontinu": 3895,
      "Ġart": 3896,
      "Aut": 3897,
      "Ġpredict": 3898,
      "ç»": 3899,
      "ĠâĪ": 3900,
      "Load": 3901,
      "orrect": 3902,
      "Ġandroid": 3903,
      "Ġpair": 3904,
      "Ġcomputer": 3905,
      "header": 3906,
      "Ġetc": 3907,
      "plicit": 3908,
      "Ġattempt": 3909,
      "DD": 3910,
      "Ġcapt": 3911,
      "Ġrather": 3912,
      "times": 3913,
      "sg": 3914,
      "Ġ>=": 3915,
      "Ġslow": 3916,
      "Ġcollection": 3917,
      "_\\": 3918,
      ")*": 3919,
      "Ġpattern": 3920,
      "ĠMath": 3921,
      "ung": 3922,
      "ilon": 3923,
      "nums": 3924,
      "ĠPol": 3925,
      "ĠSolution": 3926,
      ".size": 3927,
      "Ġeasier": 3928,
      "Ġothers": 3929,
      "Ġempty": 3930,
      "Ġfour": 3931,
      "ering": 3932,
      "ĠThen": 3933,
      "Ġseems": 3934,
      "Ġclasses": 3935,
      "Ġrequirements": 3936,
      "ĠDesign": 3937,
      "ĠCSS": 3938,
      "utes": 3939,
      "Ġgrid": 3940,
      "ĠEm": 3941,
      "Ġabs": 3942,
      "BU": 3943,
      "Ġden": 3944,
      "Ġcommit": 3945,
      "arning": 3946,
      "json": 3947,
      "ĠPower": 3948,
      "Ġwords": 3949,
      "allback": 3950,
      "<li": 3951,
      "PS": 3952,
      "ĠWhile": 3953,
      "TE": 3954,
      "ison": 3955,
      "ĠclassName": 3956,
      "Ġseries": 3957,
      "lie": 3958,
      "!!": 3959,
      "ĠFr": 3960,
      "Ġcenter": 3961,
      "Ġlock": 3962,
      "Open": 3963,
      "Ġ[]": 3964,
      "ause": 3965,
      "Override": 3966,
      "aim": 3967,
      "dated": 3968,
      "(l": 3969,
      "Post": 3970,
      "Ġrelations": 3971,
      "_H": 3972,
      "zz": 3973,
      "Property": 3974,
      "Listener": 3975,
      ".*": 3976,
      "istance": 3977,
      "ugins": 3978,
      "output": 3979,
      "faces": 3980,
      "Ġ})": 3981,
      "emplate": 3982,
      "Ġsat": 3983,
      "(r": 3984,
      "otion": 3985,
      "Ġengine": 3986,
      "Ġwait": 3987,
      "Ġbegin": 3988,
      "ĠSe": 3989,
      "Ġbinary": 3990,
      "Ġadapt": 3991,
      "msg": 3992,
      "ĠInformation": 3993,
      "usic": 3994,
      "Ġoptimization": 3995,
      "land": 3996,
      "Ġdifference": 3997,
      "Ġexcept": 3998,
      "Ġtoken": 3999,
      "Ġwater": 4000,
      "EC": 4001,
      "arse": 4002,
      "ĠTrue": 4003,
      "mm": 4004,
      "echnique": 4005,
      "Ġmult": 4006,
      "ai": 4007,
      "Server": 4008,
      "ipse": 4009,
      "ĠHandling": 4010,
      "Version": 4011,
      "(&": 4012,
      "riter": 4013,
      "Ġphys": 4014,
      "ĠService": 4015,
      "with": 4016,
      "KE": 4017,
      "ports": 4018,
      "Ġlatency": 4019,
      "Ġax": 4020,
      "Ġdomain": 4021,
      "ittle": 4022,
      "Ġë": 4023,
      "Ġerr": 4024,
      "Ġlibraries": 4025,
      "ved": 4026,
      "ategy": 4027,
      "Ġge": 4028,
      ".to": 4029,
      "Ġhyp": 4030,
      "Ġhome": 4031,
      "Control": 4032,
      "sv": 4033,
      "orn": 4034,
      "Ġborder": 4035,
      "Ġlower": 4036,
      "author": 4037,
      "Det": 4038,
      "Ġdays": 4039,
      "ike": 4040,
      "ards": 4041,
      "theta": 4042,
      "ĠGr": 4043,
      "Ġzero": 4044,
      "}{\\": 4045,
      "Ġregular": 4046,
      "Ġenough": 4047,
      "Ġmenu": 4048,
      "IO": 4049,
      "<T": 4050,
      "ulate": 4051,
      "Ġpress": 4052,
      "default": 4053,
      ")))": 4054,
      "github": 4055,
      "update": 4056,
      "Ġtag": 4057,
      "{{": 4058,
      "Ġtemplate": 4059,
      "åŃ": 4060,
      "izations": 4061,
      "ales": 4062,
      "Ġlogging": 4063,
      "Ġvs": 4064,
      "minist": 4065,
      "Dec": 4066,
      "amera": 4067,
      "Ġactually": 4068,
      ".jpg": 4069,
      "ĠId": 4070,
      "Ġthing": 4071,
      "/h": 4072,
      "ĠEach": 4073,
      "email": 4074,
      "ĠExpl": 4075,
      "Ġedge": 4076,
      "SC": 4077,
      "ĠÂ": 4078,
      "mall": 4079,
      "ĠStart": 4080,
      "atrix": 4081,
      "ycle": 4082,
      "arameter": 4083,
      "Ñĥ": 4084,
      "','": 4085,
      "ifications": 4086,
      "Ġefficiently": 4087,
      "Ġprocesses": 4088,
      "Mod": 4089,
      "Ġboolean": 4090,
      "Ġappropriate": 4091,
      "ìĿ": 4092,
      "chema": 4093,
      "Ġmonitoring": 4094,
      "Ġsomeone": 4095,
      "Ġheader": 4096,
      "Ġsets": 4097,
      "_re": 4098,
      "Ġmaintaining": 4099,
      "USER": 4100,
      "Ġutil": 4101,
      "alt": 4102,
      "abor": 4103,
      "Ġ<-": 4104,
      "Ġuns": 4105,
      "Ġtechnique": 4106,
      "Ġprior": 4107,
      "True": 4108,
      "Ġgre": 4109,
      "Ġpers": 4110,
      "OST": 4111,
      "ĠInst": 4112,
      "ocker": 4113,
      "Ġtoget": 4114,
      "Ġdoc": 4115,
      "Ġbody": 4116,
      "irectory": 4117,
      "Ġconstant": 4118,
      "Ġfast": 4119,
      "Ġtogether": 4120,
      "}$.": 4121,
      "DA": 4122,
      "GL": 4123,
      "ĠLoad": 4124,
      "Ġfactor": 4125,
      "istribut": 4126,
      "-bit": 4127,
      "missions": 4128,
      "Head": 4129,
      "IB": 4130,
      "acity": 4131,
      "umer": 4132,
      "FC": 4133,
      "Ġcontain": 4134,
      "ything": 4135,
      "ensor": 4136,
      "Integer": 4137,
      "Ġalt": 4138,
      "pper": 4139,
      "Ġdetermine": 4140,
      "Ġexternal": 4141,
      "Ġprojects": 4142,
      "ictionary": 4143,
      "Ġlife": 4144,
      "(data": 4145,
      "ĠExp": 4146,
      "lying": 4147,
      "^{-": 4148,
      "++++": 4149,
      "sigma": 4150,
      "Ġwritten": 4151,
      "position": 4152,
      "ncy": 4153,
      "ĠMemory": 4154,
      "Ġsample": 4155,
      "igger": 4156,
      "Ġfar": 4157,
      "Ġfixed": 4158,
      "Ġdetailed": 4159,
      "ĠSupp": 4160,
      "Ġupdated": 4161,
      "Ġnegative": 4162,
      "Ġthird": 4163,
      "Layout": 4164,
      "Ġleading": 4165,
      "ĠRead": 4166,
      "Ġaccept": 4167,
      "Ġrot": 4168,
      "Ġserial": 4169,
      "_RE": 4170,
      "ĠDis": 4171,
      "ĠAdditionally": 4172,
      "TER": 4173,
      "Ġassociated": 4174,
      "Ġglobal": 4175,
      "oney": 4176,
      "Click": 4177,
      "current": 4178,
      "la": 4179,
      "Ġenable": 4180,
      "ĠGu": 4181,
      "avigation": 4182,
      "ĠSome": 4183,
      "ĠĠĠĠĠĠĠĠĠĠĠĠĠĠĠĠĠĠĠĠĠĠĠĠĠĠĠĠĠĠĠĠĠĠĠĠĠĠĠĠĠĠĠĠĠĠĠĠĠĠĠĠĠ": 4184,
      "Ã¤": 4185,
      "'d": 4186,
      ".</": 4187,
      "Ġphone": 4188,
      "Ġcross": 4189,
      "Default": 4190,
      "ĠPract": 4191,
      "ĠMulti": 4192,
      "ROM": 4193,
      "Ġcomb": 4194,
      "lin": 4195,
      "ĠAdditional": 4196,
      "ðĿ": 4197,
      "Ġpipel": 4198,
      "hell": 4199,
      ".cont": 4200,
      "ponents": 4201,
      "Label": 4202,
      "Ġachieve": 4203,
      "Ġsit": 4204,
      "Custom": 4205,
      "$\\": 4206,
      "Ġinstallation": 4207,
      ".io": 4208,
      "Ġdrive": 4209,
      "Ġloss": 4210,
      "fix": 4211,
      "Ġattribute": 4212,
      "Ġcommunication": 4213,
      "ises": 4214,
      "ĠDisc": 4215,
      "Ġsymbol": 4216,
      "Ġconsistent": 4217,
      "stract": 4218,
      "Ġmed": 4219,
      "check": 4220,
      "Ġcommands": 4221,
      "sql": 4222,
      "Ġdest": 4223,
      "outer": 4224,
      ".data": 4225,
      "do": 4226,
      "Ġpub": 4227,
      "ĠAtt": 4228,
      "Ġmass": 4229,
      "Ġextends": 4230,
      "service": 4231,
      "One": 4232,
      "like": 4233,
      "Ġdistance": 4234,
      ";&": 4235,
      "Ġleg": 4236,
      "udo": 4237,
      "_k": 4238,
      "ASS": 4239,
      "Ġoptimizing": 4240,
      "Ġ>>>": 4241,
      "Ġ`-": 4242,
      "ä¸Ģ": 4243,
      "Ġhum": 4244,
      "Ġachiev": 4245,
      "âĶ": 4246,
      "grade": 4247,
      "dr": 4248,
      "ube": 4249,
      "Ġ~": 4250,
      "Ġstrong": 4251,
      "Ġterm": 4252,
      "Ġcalls": 4253,
      "There": 4254,
      "Builder": 4255,
      "Ġcommunity": 4256,
      "VE": 4257,
      "ĠQuestion": 4258,
      "ĠName": 4259,
      "Ġtraffic": 4260,
      "Ġprefer": 4261,
      "à¸": 4262,
      "........": 4263,
      "Ġenvironments": 4264,
      "Ġbar": 4265,
      "Ġparts": 4266,
      "Ġbasic": 4267,
      "Row": 4268,
      "ĠProt": 4269,
      "æĪ": 4270,
      "uccess": 4271,
      ":\\": 4272,
      "ajor": 4273,
      "Ġawait": 4274,
      "Ġsave": 4275,
      "xml": 4276,
      "Ġprice": 4277,
      "osed": 4278,
      "Ġvalidation": 4279,
      "chool": 4280,
      "Ġsignal": 4281,
      "ocial": 4282,
      "eting": 4283,
      "osing": 4284,
      "Ġ::": 4285,
      "isf": 4286,
      "clusion": 4287,
      "Ġeffective": 4288,
      "Ġframe": 4289,
      "Ġcome": 4290,
      "agment": 4291,
      "Ġshows": 4292,
      "vider": 4293,
      "erpt": 4294,
      "Ġpages": 4295,
      "rote": 4296,
      "iciency": 4297,
      "Ġweek": 4298,
      "Ġbusiness": 4299,
      "Ġdetect": 4300,
      "Ġlonger": 4301,
      "gre": 4302,
      "Ġgenerated": 4303,
      "Ġstudy": 4304,
      "ora": 4305,
      "Ġpractices": 4306,
      "ĠSoftware": 4307,
      "ĠOff": 4308,
      "Next": 4309,
      "Ġprogramming": 4310,
      "rupt": 4311,
      "<code": 4312,
      "Use": 4313,
      "sive": 4314,
      "ĠST": 4315,
      "*/": 4316,
      "Ġwriting": 4317,
      "Ġadvanced": 4318,
      "Ġshare": 4319,
      "Ġthrow": 4320,
      "ĠĠĠĠĠĠĠĠĠĠĠĠĠĠĠĠĠĠĠĠĠĠĠĠĠĠĠĠĠĠĠĠĠĠĠĠĠĠĠĠĠĠĠĠĠĠĠĠĠĠĠĠĠĠĠ": 4321,
      "VM": 4322,
      "Ġassum": 4323,
      "Ass": 4324,
      "Author": 4325,
      "Ġbrowser": 4326,
      "ĠNode": 4327,
      "Ġconcept": 4328,
      "/v": 4329,
      "uk": 4330,
      "Ġchecks": 4331,
      "Ġ<!--": 4332,
      "bles": 4333,
      "cdot": 4334,
      "ceed": 4335,
      "Handler": 4336,
      "Ġlayout": 4337,
      "YPE": 4338,
      "Note": 4339,
      "icies": 4340,
      "show": 4341,
      "info": 4342,
      "Ġprec": 4343,
      "Ġdriver": 4344,
      "ensive": 4345,
      "aming": 4346,
      "(L": 4347,
      "'.": 4348,
      "Ġsw": 4349,
      "ĠProgram": 4350,
      "Ġkind": 4351,
      "plex": 4352,
      ".push": 4353,
      "ds": 4354,
      "Ġstored": 4355,
      "Ġnumer": 4356,
      "Back": 4357,
      "/lib": 4358,
      "Ġcaching": 4359,
      "Ġauto": 4360,
      "ills": 4361,
      "Ġresolve": 4362,
      "Base": 4363,
      "ĠRun": 4364,
      "nu": 4365,
      "Ġcause": 4366,
      "plication": 4367,
      "Ġlatest": 4368,
      "env": 4369,
      "ĠAcc": 4370,
      "TH": 4371,
      "uit": 4372,
      "post": 4373,
      "Ġaffect": 4374,
      "ached": 4375,
      "Ġfolder": 4376,
      "ĠReview": 4377,
      "ĠAny": 4378,
      "Ġdu": 4379,
      "Ġsmaller": 4380,
      "Thread": 4381,
      "Ġ\\<": 4382,
      "oom": 4383,
      "*)": 4384,
      "assert": 4385,
      "Ġhelps": 4386,
      "Ġchoice": 4387,
      "ledge": 4388,
      "umb": 4389,
      "Ġincluded": 4390,
      "Ġplease": 4391,
      "asic": 4392,
      "ino": 4393,
      "icult": 4394,
      "ODE": 4395,
      "Ġdoing": 4396,
      "au": 4397,
      "ĠBack": 4398,
      "Ġstarted": 4399,
      "ĠAdded": 4400,
      "ÐµÐ": 4401,
      "Ġdetermin": 4402,
      "erge": 4403,
      "Ġqueries": 4404,
      "Ġmechanisms": 4405,
      "Ġaudio": 4406,
      "aves": 4407,
      "Ġ(`": 4408,
      "Ġinit": 4409,
      "orem": 4410,
      "ä¸ª": 4411,
      "cast": 4412,
      "Ġyes": 4413,
      "Ġidea": 4414,
      "adius": 4415,
      "ðŁ": 4416,
      "Ġaltern": 4417,
      "ias": 4418,
      "node": 4419,
      "Util": 4420,
      "Ġalloc": 4421,
      "ĉm": 4422,
      "Ġstarting": 4423,
      "Par": 4424,
      "equation": 4425,
      "Ġlayer": 4426,
      "Ġ`.": 4427,
      "Ġfactors": 4428,
      "plot": 4429,
      "_G": 4430,
      "Ġtrad": 4431,
      "Def": 4432,
      "Ġlooking": 4433,
      "ĠOutput": 4434,
      "Ġargument": 4435,
      "Ġcollect": 4436,
      "ĠHel": 4437,
      "Ġwrote": 4438,
      "ĠCase": 4439,
      "Ġcompany": 4440,
      "Ġimplementing": 4441,
      "center": 4442,
      "Ġago": 4443,
      "?**": 4444,
      "ĠMan": 4445,
      "Bar": 4446,
      "content": 4447,
      "Ġlittle": 4448,
      "wards": 4449,
      "ums": 4450,
      "Ġfun": 4451,
      "Ġactions": 4452,
      "Token": 4453,
      "Update": 4454,
      "********************************": 4455,
      "aches": 4456,
      "ĠOptimization": 4457,
      "Ġstates": 4458,
      "ĠOper": 4459,
      "hemat": 4460,
      "UP": 4461,
      "Ġclose": 4462,
      "}$,": 4463,
      "Ġdidn": 4464,
      "ĠAb": 4465,
      "Ġmetrics": 4466,
      "onstr": 4467,
      "=\"/": 4468,
      "Ġtraining": 4469,
      "Ġefficiency": 4470,
      "ĠAndroid": 4471,
      "ĠNote": 4472,
      "Ġfine": 4473,
      "ĠFalse": 4474,
      "ĠEvent": 4475,
      "ĠOR": 4476,
      "ament": 4477,
      "only": 4478,
      "Ġsuggest": 4479,
      "aven": 4480,
      "Ġisn": 4481,
      "åĬ": 4482,
      "Charlie": 4483,
      "response": 4484,
      "Ġfollows": 4485,
      "-item": 4486,
      "Ġplayer": 4487,
      "false": 4488,
      "Ġexamples": 4489,
      "Ġcourse": 4490,
      "unity": 4491,
      "(g": 4492,
      "ĠJan": 4493,
      "_W": 4494,
      "ABLE": 4495,
      "Ġseparate": 4496,
      "olving": 4497,
      "Ġthought": 4498,
      "lications": 4499,
      "Attribute": 4500,
      "](#": 4501,
      "big": 4502,
      "anged": 4503,
      "Ġmanaging": 4504,
      "known": 4505,
      "ios": 4506,
      "Ġentry": 4507,
      "OW": 4508,
      "_x": 4509,
      "-re": 4510,
      "Ġlinear": 4511,
      "Ġbecome": 4512,
      "Ġlikely": 4513,
      "_set": 4514,
      "<?": 4515,
      "CF": 4516,
      "ĉĉĉĉĉĉĉ": 4517,
      "Ġdisk": 4518,
      "ĠDebug": 4519,
      "\"/>": 4520,
      "Part": 4521,
      "Ġgetting": 4522,
      "ters": 4523,
      "Ġstop": 4524,
      "'),": 4525,
      "Ob": 4526,
      "etc": 4527,
      "ugg": 4528,
      "ipe": 4529,
      "Ġloading": 4530,
      "IZ": 4531,
      "Ġweight": 4532,
      "ĠOct": 4533,
      "Ġchoose": 4534,
      "thing": 4535,
      "Ġsem": 4536,
      "field": 4537,
      "Ġ**`": 4538,
      "EF": 4539,
      "isp": 4540,
      "Last": 4541,
      "eature": 4542,
      "ĠGo": 4543,
      "Ġrobust": 4544,
      "Ġspecify": 4545,
      "{equation": 4546,
      "cp": 4547,
      "XX": 4548,
      "ĠFire": 4549,
      "ttps": 4550,
      "Ġselected": 4551,
      "Ø§": 4552,
      "perature": 4553,
      "Ġconflic": 4554,
      "ls": 4555,
      "CS": 4556,
      "Ġcontinue": 4557,
      "ĠÂłĠÂł": 4558,
      ">`": 4559,
      "make": 4560,
      "ii": 4561,
      "icate": 4562,
      "Ġ{\\": 4563,
      "Ġauthentication": 4564,
      "ĠSD": 4565,
      "/)": 4566,
      "Ġmissing": 4567,
      "Instance": 4568,
      "Ġintegration": 4569,
      "ĠStrategies": 4570,
      "Valid": 4571,
      "Ġretri": 4572,
      "Ġassign": 4573,
      "ĠAnalysis": 4574,
      "example": 4575,
      "icle": 4576,
      "IST": 4577,
      "atio": 4578,
      "Ġargs": 4579,
      "}$$": 4580,
      "Ġlib": 4581,
      "Ġ`<": 4582,
      "orial": 4583,
      "Ġcontribut": 4584,
      "\\right": 4585,
      "Out": 4586,
      "Eng": 4587,
      "Exp": 4588,
      "straints": 4589,
      ".create": 4590,
      "Ġmedia": 4591,
      "ĠVisual": 4592,
      "ober": 4593,
      ".v": 4594,
      "ILE": 4595,
      "Ġshown": 4596,
      "ina": 4597,
      "Edit": 4598,
      "-F": 4599,
      "mut": 4600,
      "ĠImplementing": 4601,
      ".sp": 4602,
      "ĠIssues": 4603,
      "opp": 4604,
      "ĠTesting": 4605,
      "Ġfaster": 4606,
      "Ġyet": 4607,
      "display": 4608,
      "ĠVari": 4609,
      "page": 4610,
      "Ġrepository": 4611,
      "pache": 4612,
      "Ġfeedback": 4613,
      ";->": 4614,
      ".on": 4615,
      ".next": 4616,
      "anguages": 4617,
      "ĠEnglish": 4618,
      "etimes": 4619,
      "each": 4620,
      "Ġenter": 4621,
      "Ġconsistency": 4622,
      "ById": 4623,
      "mar": 4624,
      "Ġurl": 4625,
      ")]": 4626,
      "Dr": 4627,
      "Ġdelete": 4628,
      "ĠIntern": 4629,
      "_j": 4630,
      ")=": 4631,
      "Ġhttps": 4632,
      ".**": 4633,
      "efore": 4634,
      "Ġcluster": 4635,
      "Ġmaterial": 4636,
      "aling": 4637,
      "Ġcompression": 4638,
      "state": 4639,
      ".Get": 4640,
      ".txt": 4641,
      "Ġpackages": 4642,
      "Work": 4643,
      "ensity": 4644,
      "Ġgl": 4645,
      "eler": 4646,
      "ĠUnderstanding": 4647,
      "Ġnil": 4648,
      "''": 4649,
      "Ġscale": 4650,
      "Ġthreads": 4651,
      "è¡": 4652,
      "Ġservers": 4653,
      "partial": 4654,
      "ĠUSB": 4655,
      "Ġmill": 4656,
      "Ġgroups": 4657,
      "ĠMar": 4658,
      "Ġfit": 4659,
      "Ġtransfer": 4660,
      "æĺ¯": 4661,
      "/O": 4662,
      "leq": 4663,
      "ĠResponse": 4664,
      "Ġactual": 4665,
      "ised": 4666,
      "ĠJul": 4667,
      "close": 4668,
      "project": 4669,
      "Ġaccording": 4670,
      "Ġsupported": 4671,
      "ĠState": 4672,
      "Fl": 4673,
      "Ġmodules": 4674,
      "Ġencounter": 4675,
      "notation": 4676,
      "ao": 4677,
      "ĠCommon": 4678,
      "bra": 4679,
      "++;": 4680,
      "\"))": 4681,
      "Ġseen": 4682,
      "Ġinvest": 4683,
      ">&": 4684,
      "Ñı": 4685,
      "`)": 4686,
      "TO": 4687,
      "Ġgrow": 4688,
      "itude": 4689,
      "çĶ¨": 4690,
      "Ġnear": 4691,
      "Order": 4692,
      "lation": 4693,
      "Ġresearch": 4694,
      "Ġlogs": 4695,
      "Options": 4696,
      "Ġenhance": 4697,
      "oriz": 4698,
      "\\in": 4699,
      "\"),": 4700,
      "LECT": 4701,
      "Ġactive": 4702,
      "aken": 4703,
      "Ġcontainer": 4704,
      "atal": 4705,
      "Ġpast": 4706,
      "-size": 4707,
      "fect": 4708,
      "ayers": 4709,
      "ĠIS": 4710,
      "Ġpartition": 4711,
      "ros": 4712,
      "product": 4713,
      "ollow": 4714,
      "Ġmention": 4715,
      "Ġexcerpt": 4716,
      "ĠSystems": 4717,
      "ulner": 4718,
      "urations": 4719,
      "Ġ}}": 4720,
      "Ġseg": 4721,
      "URL": 4722,
      "Ġapplied": 4723,
      "Ġremains": 4724,
      "Ġhappen": 4725,
      "ĠOracle": 4726,
      "agram": 4727,
      "ooting": 4728,
      "Ġanything": 4729,
      "acement": 4730,
      "Change": 4731,
      "Mon": 4732,
      "Ġinvolve": 4733,
      "ĠGiven": 4734,
      "Ġcontact": 4735,
      "web": 4736,
      "met": 4737,
      "Ġfrequency": 4738,
      "ĠArch": 4739,
      "<a": 4740,
      "Ġitself": 4741,
      ".)": 4742,
      "Ġasync": 4743,
      "Ġinsights": 4744,
      "Ġmac": 4745,
      "main": 4746,
      ">();": 4747,
      "inally": 4748,
      "ĠComput": 4749,
      "ĠGPU": 4750,
      "most": 4751,
      "-level": 4752,
      "ĠMe": 4753,
      "Ġbad": 4754,
      "frame": 4755,
      "thread": 4756,
      "Ġ{}": 4757,
      "Ġcomment": 4758,
      "gamma": 4759,
      "Ġsolve": 4760,
      "ĠNov": 4761,
      "Ġminutes": 4762,
      "lenec": 4763,
      "ottlenec": 4764,
      "doc": 4765,
      "ologies": 4766,
      "Ġhours": 4767,
      "Ġnat": 4768,
      "Ġincrease": 4769,
      "Style": 4770,
      "Ñĭ": 4771,
      "uby": 4772,
      "resents": 4773,
      "ĠApplication": 4774,
      "Ġdemonstr": 4775,
      "pc": 4776,
      "delta": 4777,
      "undle": 4778,
      "Ġcoordin": 4779,
      "_path": 4780,
      "urrency": 4781,
      "connect": 4782,
      "yt": 4783,
      "________": 4784,
      "ply": 4785,
      "icial": 4786,
      "Ġcorresponding": 4787,
      "ependent": 4788,
      "Ġtried": 4789,
      "Ġwrong": 4790,
      "SH": 4791,
      "):**": 4792,
      "Ġbytes": 4793,
      "aligned": 4794,
      "ĠHigh": 4795,
      "_A": 4796,
      "Ġmargin": 4797,
      "Ġaverage": 4798,
      "*}": 4799,
      "Ġcore": 4800,
      "Ġscenarios": 4801,
      "oute": 4802,
      "cite": 4803,
      "ĠMark": 4804,
      "Search": 4805,
      "Ġstrings": 4806,
      "Off": 4807,
      "tml": 4808,
      "Ġtables": 4809,
      "rome": 4810,
      "Ġregister": 4811,
      "sk": 4812,
      "ĠDocument": 4813,
      "names": 4814,
      "dir": 4815,
      "Ġdescription": 4816,
      "Ġmodify": 4817,
      "ĠImage": 4818,
      "uses": 4819,
      "Ġinstructions": 4820,
      "child": 4821,
      "avel": 4822,
      "Ġnamed": 4823,
      "Ġexpression": 4824,
      "ĠWhy": 4825,
      "Ġcondition": 4826,
      "ilde": 4827,
      "Function": 4828,
      "(R": 4829,
      "ĠSuppose": 4830,
      "DC": 4831,
      "Project": 4832,
      "Ġwebsite": 4833,
      "ĠGraph": 4834,
      "ĠInput": 4835,
      "iversity": 4836,
      "Command": 4837,
      "git": 4838,
      "åº": 4839,
      "ĠÎ": 4840,
      "here": 4841,
      "req": 4842,
      "comes": 4843,
      "Ġbranch": 4844,
      "ĠRel": 4845,
      "è®": 4846,
      "_ST": 4847,
      "Ġsentence": 4848,
      "adow": 4849,
      "Ġtemp": 4850,
      "Ġcapabilities": 4851,
      "\\left": 4852,
      ".name": 4853,
      "Ġtab": 4854,
      "build": 4855,
      "Ġqueue": 4856,
      "Ġcomes": 4857,
      "ĠIntegration": 4858,
      "Ġexperi": 4859,
      "Tree": 4860,
      "astic": 4861,
      "-C": 4862,
      "Ġlaw": 4863,
      "ĉfor": 4864,
      "CK": 4865,
      "ĠWord": 4866,
      "################": 4867,
      "Ġrisk": 4868,
      "try": 4869,
      "lished": 4870,
      "BA": 4871,
      "Ġpick": 4872,
      "Ġstudents": 4873,
      "Ġ),": 4874,
      "work": 4875,
      "**.": 4876,
      "Ġdifficult": 4877,
      "esh": 4878,
      "Ġsynchron": 4879,
      "group": 4880,
      "ificate": 4881,
      "Ġmom": 4882,
      "_add": 4883,
      "ĠThanks": 4884,
      "lt": 4885,
      "emo": 4886,
      "PT": 4887,
      "tty": 4888,
      "EL": 4889,
      "na": 4890,
      "<!--": 4891,
      "Ġcurrently": 4892,
      "De": 4893,
      "Ġeverything": 4894,
      "Ġregion": 4895,
      "Frame": 4896,
      "Ġrule": 4897,
      "Ġconnections": 4898,
      "Ġjav": 4899,
      "src": 4900,
      "Product": 4901,
      "RI": 4902,
      "Ġchallenges": 4903,
      "embly": 4904,
      "Ġcomplexity": 4905,
      "Ġpermissions": 4906,
      "remove": 4907,
      "John": 4908,
      "ĠEnc": 4909,
      "Ġmag": 4910,
      "actor": 4911,
      "Process": 4912,
      "Ġminimum": 4913,
      "Ġhealth": 4914,
      "Ġrendering": 4915,
      "Stack": 4916,
      "ony": 4917,
      "Ġtermin": 4918,
      "Ġinsert": 4919,
      "eve": 4920,
      "Ġconfigure": 4921,
      "see": 4922,
      "Ġ___": 4923,
      "Url": 4924,
      "meric": 4925,
      "Ġprimary": 4926,
      "å°": 4927,
      "Ġinternal": 4928,
      "ĠTable": 4929,
      "Ġmajor": 4930,
      "Num": 4931,
      "ĠFiles": 4932,
      ".apache": 4933,
      "pack": 4934,
      "ising": 4935,
      "egers": 4936,
      "install": 4937,
      "_a": 4938,
      "VER": 4939,
      "ĠFind": 4940,
      "message": 4941,
      "ï¼ļ": 4942,
      "ĠNow": 4943,
      "ĠPHP": 4944,
      "Title": 4945,
      "uint": 4946,
      "Ġactiv": 4947,
      "uning": 4948,
      "iding": 4949,
      "ka": 4950,
      "ĠSource": 4951,
      "Ġsound": 4952,
      "Ġonline": 4953,
      "next": 4954,
      "Solution": 4955,
      "_file": 4956,
      "Format": 4957,
      "Ġra": 4958,
      "åľ": 4959,
      "Ġremain": 4960,
      "ursor": 4961,
      "though": 4962,
      "Ġjoin": 4963,
      ".value": 4964,
      "ĠThread": 4965,
      "fty": 4966,
      "Entity": 4967,
      "Ġlarger": 4968,
      "rho": 4969,
      "Ġtypically": 4970,
      "Case": 4971,
      "Rem": 4972,
      "Ġscripts": 4973,
      "stream": 4974,
      "Ġgames": 4975,
      "ĠAS": 4976,
      "Ġproperly": 4977,
      "gl": 4978,
      "Ġstatement": 4979,
      "ĠLear": 4980,
      "Factory": 4981,
      "yl": 4982,
      "ĠBr": 4983,
      "azy": 4984,
      "Ġcou": 4985,
      "blesh": 4986,
      "zure": 4987,
      "ĠAug": 4988,
      "Run": 4989,
      "Ġconsum": 4990,
      "Ġeffectively": 4991,
      "Ġenabling": 4992,
      "NET": 4993,
      "Ġways": 4994,
      "Ġimplemented": 4995,
      "ams": 4996,
      "():": 4997,
      "Ġrecogn": 4998,
      "ĠAre": 4999,
      "/M": 5000,
      "Ġmicro": 5001,
      "Ġconsidered": 5002,
      "func": 5003,
      "iation": 5004,
      "ĠSelect": 5005,
      "Using": 5006,
      "Ġinterval": 5007,
      "ĠReturns": 5008,
      "Ġemploy": 5009,
      "ĠExt": 5010,
      "coming": 5011,
      "ously": 5012,
      "vironment": 5013,
      "ĠCopy": 5014,
      "itable": 5015,
      "ĠApplications": 5016,
      "Ġattributes": 5017,
      "inc": 5018,
      "Ġcompatibility": 5019,
      "Ġoffers": 5020,
      "[j": 5021,
      "create": 5022,
      "atively": 5023,
      "Ġ\",": 5024,
      "Ġcontaining": 5025,
      "Ġverify": 5026,
      "Ġpropos": 5027,
      "sharp": 5028,
      "Ġbackup": 5029,
      "block": 5030,
      ".min": 5031,
      "Ġaccuracy": 5032,
      "(v": 5033,
      "defined": 5034,
      "orph": 5035,
      "Ġmembers": 5036,
      ";</": 5037,
      "FO": 5038,
      "Ġdetection": 5039,
      "values": 5040,
      "pol": 5041,
      "plates": 5042,
      "ĠOther": 5043,
      "Do": 5044,
      "eek": 5045,
      "WS": 5046,
      "^\\": 5047,
      "Max": 5048,
      "Auth": 5049,
      "ĠBest": 5050,
      "model": 5051,
      "sim": 5052,
      "ĠĠĠĠĠĠĠĠĠĠĠĠĠĠĠĠĠĠĠĠĠĠĠĠĠĠĠĠĠĠĠĠĠĠĠĠĠĠĠĠĠĠĠĠĠĠĠĠĠĠĠĠĠĠĠĠĠ": 5053,
      "CA": 5054,
      "Ġoverall": 5055,
      "Ġdynam": 5056,
      "admin": 5057,
      "Ġapprox": 5058,
      "Ġbuy": 5059,
      "vents": 5060,
      "Ġfa": 5061,
      "ana": 5062,
      "ATA": 5063,
      "Ġtalk": 5064,
      "Ġpopular": 5065,
      "meta": 5066,
      "ĠManager": 5067,
      "ymm": 5068,
      "Hub": 5069,
      "Ġcalculate": 5070,
      ".Add": 5071,
      "ART": 5072,
      "Ġinside": 5073,
      "Ġdebugging": 5074,
      "ĠCD": 5075,
      "ĠAc": 5076,
      "erence": 5077,
      "Ġoccur": 5078,
      "IX": 5079,
      "tau": 5080,
      "ĠVer": 5081,
      "ĠCalculate": 5082,
      "hesis": 5083,
      "Ġpolicy": 5084,
      "ĠMat": 5085,
      "arily": 5086,
      "Ġchanged": 5087,
      "Ġprime": 5088,
      "summary": 5089,
      "Ġencryption": 5090,
      "ategories": 5091,
      "Buffer": 5092,
      "Ġconver": 5093,
      "ORT": 5094,
      "ij": 5095,
      "ĠNumber": 5096,
      "Ġcomplet": 5097,
      "Ġsquare": 5098,
      "Ġrelevant": 5099,
      "cat": 5100,
      "Ðº": 5101,
      "Min": 5102,
      "MP": 5103,
      "æĹ": 5104,
      "ĠApr": 5105,
      "Ġ['": 5106,
      "Ġaway": 5107,
      "scri": 5108,
      "Ġaspect": 5109,
      "istry": 5110,
      "enge": 5111,
      "Ġ(-": 5112,
      "Ġarguments": 5113,
      "Ġanim": 5114,
      "'>": 5115,
      "ĠFirst": 5116,
      "ĠApple": 5117,
      "Ġhold": 5118,
      "Ġvolume": 5119,
      "Ġforce": 5120,
      "Ġregard": 5121,
      "ressed": 5122,
      "ares": 5123,
      "ĠValid": 5124,
      "cons": 5125,
      "Ed": 5126,
      "ĠYes": 5127,
      "âĶĢ": 5128,
      "ANT": 5129,
      "ĠTree": 5130,
      ".find": 5131,
      "source": 5132,
      ".as": 5133,
      "oder": 5134,
      "mon": 5135,
      "Ġreading": 5136,
      "amil": 5137,
      "ĠFree": 5138,
      "buntu": 5139,
      "Ġconfigured": 5140,
      "Sim": 5141,
      "=$": 5142,
      "Ġpadding": 5143,
      "Ġanyone": 5144,
      "Null": 5145,
      "First": 5146,
      "MA": 5147,
      "Ġlevels": 5148,
      "rip": 5149,
      "Ġann": 5150,
      "Ġ\"\\": 5151,
      "_DE": 5152,
      "eft": 5153,
      "utorial": 5154,
      "Http": 5155,
      "ansp": 5156,
      "-W": 5157,
      "ctx": 5158,
      "now": 5159,
      "cos": 5160,
      "ĠReact": 5161,
      "pling": 5162,
      "ography": 5163,
      "pli": 5164,
      ".class": 5165,
      "Ġeasily": 5166,
      "Acc": 5167,
      "-a": 5168,
      "stack": 5169,
      "ders": 5170,
      "xxxx": 5171,
      "acter": 5172,
      "ba": 5173,
      "ometry": 5174,
      "Ġextension": 5175,
      "Ġflag": 5176,
      "omega": 5177,
      "Ġsatisf": 5178,
      "Column": 5179,
      "bool": 5180,
      "inition": 5181,
      "-x": 5182,
      "quad": 5183,
      "Ġgrad": 5184,
      "Bl": 5185,
      "anation": 5186,
      "_O": 5187,
      "Ġsense": 5188,
      "float": 5189,
      "ĉb": 5190,
      "Ġintegers": 5191,
      "Ġround": 5192,
      "Ġsplit": 5193,
      "ĠCloud": 5194,
      "}(\\": 5195,
      "Ġmut": 5196,
      "ĠSw": 5197,
      "ĠOut": 5198,
      "Ġcolumns": 5199,
      "Cell": 5200,
      "Ġmonitor": 5201,
      "Ġexception": 5202,
      "Ġ*)": 5203,
      "-L": 5204,
      "Mode": 5205,
      "Cre": 5206,
      "Ġeffects": 5207,
      "ĠIdent": 5208,
      "ĠRequest": 5209,
      "styles": 5210,
      "ĉthis": 5211,
      "cm": 5212,
      "iting": 5213,
      ".z": 5214,
      "Ġmeaning": 5215,
      "Ġpointer": 5216,
      "Ġdev": 5217,
      "ĠFrom": 5218,
      "æī": 5219,
      "ua": 5220,
      "Ġintegrity": 5221,
      "Ġsubject": 5222,
      "second": 5223,
      "Resource": 5224,
      "Ġhistory": 5225,
      "Ġmail": 5226,
      "ĠEnd": 5227,
      "Ġforward": 5228,
      "(e": 5229,
      "Net": 5230,
      "gebra": 5231,
      "Ġaim": 5232,
      "Ġearly": 5233,
      "strong": 5234,
      "Ġicon": 5235,
      "Connection": 5236,
      "ĠĠĠĠĠĠĠĠĠĠĠĠĠĠĠĠĠĠĠĠĠĠĠĠĠĠĠĠĠĠĠĠĠĠĠĠĠĠĠĠĠĠĠĠĠĠĠĠĠĠĠĠĠĠĠĠĠĠĠ": 5237,
      "<tr": 5238,
      "Ġprobably": 5239,
      "(h": 5240,
      "Ġsyntax": 5241,
      "ÑĮ": 5242,
      "Ġpatch": 5243,
      "Ġoperator": 5244,
      "Ġstrategy": 5245,
      "ĠAutom": 5246,
      "Ġquickly": 5247,
      "Ġextract": 5248,
      "Access": 5249,
      "ĠEnh": 5250,
      "BC": 5251,
      "Ġ(\\": 5252,
      "ministr": 5253,
      "Ġcomments": 5254,
      "Ġobj": 5255,
      "*x": 5256,
      "íķ": 5257,
      "-spec": 5258,
      "Delta": 5259,
      "mitted": 5260,
      "Ġrows": 5261,
      "click": 5262,
      "ighb": 5263,
      "Ġlists": 5264,
      "ATH": 5265,
      "ixel": 5266,
      "ONT": 5267,
      "_cont": 5268,
      "avor": 5269,
      "{aligned": 5270,
      "attr": 5271,
      "ĠLe": 5272,
      "Ġexactly": 5273,
      "ALL": 5274,
      "_get": 5275,
      "iring": 5276,
      "/r": 5277,
      "auto": 5278,
      "tag": 5279,
      "Location": 5280,
      "æł": 5281,
      "ĠMore": 5282,
      "upp": 5283,
      "Ġpaper": 5284,
      "Ġmetadata": 5285,
      "Ġpush": 5286,
      "ĠProv": 5287,
      "Ġdirection": 5288,
      "Ġmoney": 5289,
      "imits": 5290,
      "Ġlinks": 5291,
      "Ġprotect": 5292,
      "åĽ": 5293,
      "Ġfac": 5294,
      "Ġdecl": 5295,
      "-color": 5296,
      "$-": 5297,
      "aight": 5298,
      "ĠMessage": 5299,
      "Windows": 5300,
      "ĠPage": 5301,
      "Ġdrop": 5302,
      "Ġresolution": 5303,
      "Width": 5304,
      "yg": 5305,
      "pag": 5306,
      "UB": 5307,
      "Ġfailed": 5308,
      "endif": 5309,
      "ecl": 5310,
      "ader": 5311,
      "Ġfamily": 5312,
      "ĠCL": 5313,
      "infty": 5314,
      "plete": 5315,
      "Ġformula": 5316,
      "Ġpolicies": 5317,
      "Ġchildren": 5318,
      "ĠPublic": 5319,
      "Ġreceived": 5320,
      "Ġ\"/": 5321,
      "Ġdp": 5322,
      "fa": 5323,
      "ĠApache": 5324,
      "Ġrepresents": 5325,
      "Ġ[[": 5326,
      "Ġcompared": 5327,
      "Ġprotected": 5328,
      "Ġbottlenec": 5329,
      "ze": 5330,
      "Address": 5331,
      "Build": 5332,
      "Ġremote": 5333,
      "illa": 5334,
      "ierarch": 5335,
      "FT": 5336,
      "bb": 5337,
      "_time": 5338,
      "Ġconnected": 5339,
      "~~": 5340,
      "Ġhalf": 5341,
      "ĠFeb": 5342,
      "}\"": 5343,
      "Ġfetch": 5344,
      "empty": 5345,
      "Ġjavax": 5346,
      "ilit": 5347,
      ",-": 5348,
      "istor": 5349,
      "Ġband": 5350,
      "AY": 5351,
      "Ġsmooth": 5352,
      "otes": 5353,
      "(A": 5354,
      "Window": 5355,
      "ĠGN": 5356,
      "-D": 5357,
      "users": 5358,
      "Ġboard": 5359,
      "Ġsources": 5360,
      "ops": 5361,
      "Ġbalance": 5362,
      "Ġarchitecture": 5363,
      "ĠGe": 5364,
      "attern": 5365,
      "Module": 5366,
      "Ġdefinition": 5367,
      "_ex": 5368,
      "ussion": 5369,
      "-v": 5370,
      "[$": 5371,
      "kens": 5372,
      "leg": 5373,
      "aml": 5374,
      "atives": 5375,
      "Ġsurface": 5376,
      "_count": 5377,
      "Ġeveryone": 5378,
      "leep": 5379,
      "inci": 5380,
      "<String": 5381,
      "Menu": 5382,
      "Ġunits": 5383,
      "ERR": 5384,
      "imin": 5385,
      "edu": 5386,
      "Hz": 5387,
      "Ġblack": 5388,
      "Engine": 5389,
      "Ġones": 5390,
      "apsh": 5391,
      "Ġcloud": 5392,
      "ĠProblem": 5393,
      "Ext": 5394,
      ".py": 5395,
      "Ġgreater": 5396,
      "ty": 5397,
      "aved": 5398,
      "ebian": 5399,
      "ĠBe": 5400,
      "uns": 5401,
      "ĠAmeric": 5402,
      "Ġgover": 5403,
      "IZE": 5404,
      "Ġproced": 5405,
      "ERT": 5406,
      "dt": 5407,
      "Ġaff": 5408,
      "Ġ\"$": 5409,
      "ĠGeneral": 5410,
      "arbage": 5411,
      "Ġwhole": 5412,
      "Ġmusic": 5413,
      "co": 5414,
      "ĠAnswer": 5415,
      "oded": 5416,
      "Ġ],": 5417,
      "åĩ": 5418,
      "ffff": 5419,
      "Filter": 5420,
      "Ġvulner": 5421,
      "Ġattacks": 5422,
      "Ġsitu": 5423,
      "ĠSee": 5424,
      "Phone": 5425,
      "ĠValue": 5426,
      "////////////////": 5427,
      "TC": 5428,
      "Ġexists": 5429,
      "|\\": 5430,
      "attery": 5431,
      "_key": 5432,
      "options": 5433,
      "ĠStruct": 5434,
      "ĠSince": 5435,
      "hing": 5436,
      "Ġparsing": 5437,
      "Ġasynchronous": 5438,
      "Ġnetworks": 5439,
      "endar": 5440,
      "Ġplot": 5441,
      "_code": 5442,
      "Ġstre": 5443,
      "ĠServices": 5444,
      "Ġign": 5445,
      "Ġability": 5446,
      "wers": 5447,
      "ĠAR": 5448,
      "Ġschema": 5449,
      "emp": 5450,
      "}}\\": 5451,
      "DR": 5452,
      "ĉs": 5453,
      "Ġsimply": 5454,
      "Can": 5455,
      "Let": 5456,
      "(_": 5457,
      "ĠProf": 5458,
      "ycl": 5459,
      "Ġstraight": 5460,
      "Ġruns": 5461,
      "hensive": 5462,
      "ĠPort": 5463,
      "Ġchannel": 5464,
      "core": 5465,
      "Ġtemperature": 5466,
      "Ġful": 5467,
      "ĠPoint": 5468,
      "ĠUsers": 5469,
      "Ġembed": 5470,
      "ĠClick": 5471,
      "yd": 5472,
      "=\"../../": 5473,
      "ĠProm": 5474,
      "strict": 5475,
      "ĠFeatures": 5476,
      "orizont": 5477,
      "(T": 5478,
      "Ġseconds": 5479,
      "sets": 5480,
      "ded": 5481,
      "holder": 5482,
      "Ġlanguages": 5483,
      "-A": 5484,
      "Ġproduction": 5485,
      "PM": 5486,
      "Application": 5487,
      "Ġdb": 5488,
      "icks": 5489,
      "omin": 5490,
      "Ġcompre": 5491,
      "ĠDynamic": 5492,
      "ids": 5493,
      "cs": 5494,
      "Ġtw": 5495,
      "ĠTop": 5496,
      "reed": 5497,
      ">,": 5498,
      "Activity": 5499,
      "Oper": 5500,
      "HER": 5501,
      "Ġprofile": 5502,
      "ĠGroup": 5503,
      "ĠEl": 5504,
      "alloc": 5505,
      "kg": 5506,
      "igr": 5507,
      "bleshooting": 5508,
      "oz": 5509,
      "}=": 5510,
      ".css": 5511,
      "}/": 5512,
      "isions": 5513,
      "Ġlive": 5514,
      "Ġmodern": 5515,
      "Ġareas": 5516,
      "icture": 5517,
      "_value": 5518,
      "unit": 5519,
      "å¼": 5520,
      "éĢ": 5521,
      "apped": 5522,
      "Ġlimited": 5523,
      "esc": 5524,
      "Provider": 5525,
      "outh": 5526,
      "(C": 5527,
      "words": 5528,
      "Ġblocks": 5529,
      "ĠBen": 5530,
      "Ġimmed": 5531,
      "Ġfront": 5532,
      "length": 5533,
      "Ġruntime": 5534,
      "Ġprobability": 5535,
      "status": 5536,
      "âĢĵ": 5537,
      "rypted": 5538,
      "=>": 5539,
      "Ġcompar": 5540,
      "Ġdiscussion": 5541,
      "ĠJust": 5542,
      "adio": 5543,
      "rist": 5544,
      "Ġnote": 5545,
      "Ġreliability": 5546,
      "ĠOF": 5547,
      "Ġmath": 5548,
      "context": 5549,
      ".k": 5550,
      "Ġproducts": 5551,
      "Task": 5552,
      "can": 5553,
      "ĠHash": 5554,
      "ĠTechn": 5555,
      "ĠLine": 5556,
      "fox": 5557,
      "command": 5558,
      "write": 5559,
      "Ġcounter": 5560,
      "points": 5561,
      "(S": 5562,
      "Ġreceive": 5563,
      "ĠDefault": 5564,
      "itut": 5565,
      "-world": 5566,
      "Ġtransaction": 5567,
      "rr": 5568,
      "ĠDatabase": 5569,
      "Iss": 5570,
      "ĠNOT": 5571,
      "iffer": 5572,
      "\\[": 5573,
      "Ġderiv": 5574,
      "ĠInteger": 5575,
      "imer": 5576,
      "Ġhuman": 5577,
      "ecute": 5578,
      ".G": 5579,
      "ĠIntel": 5580,
      "Ġcallback": 5581,
      "offset": 5582,
      "Ġroom": 5583,
      "ĠÐ¿": 5584,
      "Any": 5585,
      "TD": 5586,
      "ulations": 5587,
      "Ġaccurate": 5588,
      "(M": 5589,
      "Ġremoved": 5590,
      "-specific": 5591,
      "ĠInitialize": 5592,
      ")^": 5593,
      "Ġrecommend": 5594,
      "edora": 5595,
      "-list": 5596,
      "Ġcompiler": 5597,
      "kit": 5598,
      "Ġenabled": 5599,
      "Ġexplicit": 5600,
      "'],": 5601,
      "olute": 5602,
      "ĠSearch": 5603,
      "_of": 5604,
      "ĠEnter": 5605,
      "ĠCor": 5606,
      "idence": 5607,
      "omial": 5608,
      "{C": 5609,
      "(const": 5610,
      "Ġair": 5611,
      "ĠConnect": 5612,
      "Ġconfigurations": 5613,
      "ĠKe": 5614,
      "Ġpaths": 5615,
      "Top": 5616,
      "-y": 5617,
      "then": 5618,
      "ĠDNS": 5619,
      "Ġinterpre": 5620,
      "-up": 5621,
      "{eq": 5622,
      "Now": 5623,
      "Ġprogress": 5624,
      "first": 5625,
      "Child": 5626,
      "ĠCI": 5627,
      ".Col": 5628,
      "prise": 5629,
      "Ġcut": 5630,
      "Ġgen": 5631,
      "Ġdataset": 5632,
      "Ġachieved": 5633,
      "{R": 5634,
      "BR": 5635,
      "AGE": 5636,
      "vas": 5637,
      "EXT": 5638,
      "enced": 5639,
      "BUG": 5640,
      "Ġguide": 5641,
      "rames": 5642,
      "Ġpriv": 5643,
      "Ġpersonal": 5644,
      "Ġtheory": 5645,
      "prime": 5646,
      "Ġinfo": 5647,
      "Ġsaf": 5648,
      "Return": 5649,
      "Ġknowledge": 5650,
      "Implement": 5651,
      "istent": 5652,
      "Ġbtn": 5653,
      "Block": 5654,
      "ĠLink": 5655,
      "/C": 5656,
      "ATION": 5657,
      "Ġencoding": 5658,
      "Ġflo": 5659,
      "-pro": 5660,
      "ULT": 5661,
      "Ġos": 5662,
      "ĠMap": 5663,
      "arn": 5664,
      "ving": 5665,
      "ĠAlgorith": 5666,
      "âĪ": 5667,
      "och": 5668,
      "ĠSk": 5669,
      "Ġparse": 5670,
      "Press": 5671,
      "ada": 5672,
      "Ġperfect": 5673,
      "ilation": 5674,
      "Ġmonths": 5675,
      "Ġexecute": 5676,
      "Ġmember": 5677,
      "roy": 5678,
      "Ġamong": 5679,
      "Ġrev": 5680,
      "None": 5681,
      "Option": 5682,
      "Ġtaking": 5683,
      "Ġtechnology": 5684,
      "Ġbottom": 5685,
      "BB": 5686,
      "Ġ++": 5687,
      "find": 5688,
      "Ġtaken": 5689,
      "Ġmid": 5690,
      "etime": 5691,
      "/D": 5692,
      "Ġexperiment": 5693,
      "API": 5694,
      "Ġminimize": 5695,
      "module": 5696,
      "Ġupload": 5697,
      "Ġtheme": 5698,
      "Ġfund": 5699,
      "------------": 5700,
      "acc": 5701,
      "Ġdeep": 5702,
      "igration": 5703,
      "ailability": 5704,
      "Ġcity": 5705,
      "ĠAlso": 5706,
      "_tr": 5707,
      "Ġinvoke": 5708,
      "ĠAND": 5709,
      "Ġaud": 5710,
      "ĠAzure": 5711,
      "ectors": 5712,
      "Ġmind": 5713,
      "avigate": 5714,
      "Ġpo": 5715,
      "Ġoverride": 5716,
      "isco": 5717,
      "Ġmiddle": 5718,
      "ĠCore": 5719,
      "(){": 5720,
      "/x": 5721,
      "ĠEfficient": 5722,
      "Ġpretty": 5723,
      "Ġpercent": 5724,
      "ĠOb": 5725,
      "foot": 5726,
      "uary": 5727,
      "ĠStudio": 5728,
      "_index": 5729,
      "chmark": 5730,
      "Ġpool": 5731,
      "ĠEu": 5732,
      "Ġmar": 5733,
      "Ġcho": 5734,
      "aff": 5735,
      "plain": 5736,
      "fort": 5737,
      "ĠSign": 5738,
      "virt": 5739,
      "Ġequival": 5740,
      "Ġ\\$": 5741,
      "Current": 5742,
      "icens": 5743,
      "ridge": 5744,
      "ĠFunctions": 5745,
      "Ġchecking": 5746,
      "Ġgeneration": 5747,
      "asp": 5748,
      "Ġgoal": 5749,
      "ees": 5750,
      "Ġpreser": 5751,
      "ÑģÑĤ": 5752,
      "<<": 5753,
      "annels": 5754,
      "Ġinfl": 5755,
      "Serial": 5756,
      "xi": 5757,
      "Length": 5758,
      "ĠWrite": 5759,
      "Ġalert": 5760,
      "rew": 5761,
      "itig": 5762,
      "ado": 5763,
      "ĠUbuntu": 5764,
      "Ã¡": 5765,
      ".Text": 5766,
      "(w": 5767,
      "Ġdelet": 5768,
      "ĠVM": 5769,
      "Ġchanging": 5770,
      "ĠShe": 5771,
      "Ġmobile": 5772,
      "ĠOverview": 5773,
      "Vector": 5774,
      "tab": 5775,
      "ueue": 5776,
      "-line": 5777,
      "ifically": 5778,
      "etadata": 5779,
      "Ġquite": 5780,
      "Spec": 5781,
      "Ġoptimal": 5782,
      "Subject": 5783,
      "/lang": 5784,
      "ĉprivate": 5785,
      "strap": 5786,
      "css": 5787,
      "Ġbyte": 5788,
      "Ġgives": 5789,
      "Pol": 5790,
      "Ġequations": 5791,
      "Ġ(\"": 5792,
      "Ġsnipp": 5793,
      "ission": 5794,
      "Ġnothing": 5795,
      "Ġeffort": 5796,
      ":\"": 5797,
      "Ġschool": 5798,
      "template": 5799,
      "ĠEX": 5800,
      "ĠDevelopment": 5801,
      "Generic": 5802,
      "_y": 5803,
      "Ġphase": 5804,
      "ĠRequ": 5805,
      "numer": 5806,
      "uzz": 5807,
      "DP": 5808,
      "ĠAg": 5809,
      "structure": 5810,
      "atas": 5811,
      "Vis": 5812,
      ".J": 5813,
      "Ġaddresses": 5814,
      "maz": 5815,
      "ACK": 5816,
      "ĠMake": 5817,
      "Ġpipeline": 5818,
      "Ġappears": 5819,
      "ĠMS": 5820,
      "cer": 5821,
      "Configuration": 5822,
      "Ġextra": 5823,
      "INT": 5824,
      "Ġheaders": 5825,
      "Ġreliable": 5826,
      "ĠFound": 5827,
      "Ġdialog": 5828,
      "Ġtrigger": 5829,
      "ä¸Ń": 5830,
      "AND": 5831,
      "Ġ[\"": 5832,
      "ocity": 5833,
      "Ġdepends": 5834,
      "target": 5835,
      "Ġtransition": 5836,
      "Ġimprovements": 5837,
      ".json": 5838,
      "Ġuint": 5839,
      "Ġotherwise": 5840,
      "Ġage": 5841,
      "fg": 5842,
      "Ġrelative": 5843,
      "(y": 5844,
      "echo": 5845,
      "Ġloaded": 5846,
      "/n": 5847,
      "Ð²": 5848,
      "Grid": 5849,
      "Ġreleased": 5850,
      "ÐµÐ½": 5851,
      "Step": 5852,
      "estamp": 5853,
      "Pos": 5854,
      "Hash": 5855,
      "ĠLa": 5856,
      "Ġmechanism": 5857,
      "card": 5858,
      "ĠCo": 5859,
      "Ġstyles": 5860,
      "_E": 5861,
      "ĠResult": 5862,
      "ĉvar": 5863,
      "Ġpractice": 5864,
      "ancy": 5865,
      "lier": 5866,
      "Ġwin": 5867,
      "Helper": 5868,
      "Ġusually": 5869,
      "vm": 5870,
      "Ġwor": 5871,
      "Ġmentioned": 5872,
      "ario": 5873,
      "Ġphysical": 5874,
      "ĠDoes": 5875,
      "ĠPlease": 5876,
      "-object": 5877,
      "Ġcontr": 5878,
      "-of": 5879,
      ".put": 5880,
      "Ġaddition": 5881,
      "Ġnatural": 5882,
      "roduction": 5883,
      "yb": 5884,
      "Ġfire": 5885,
      "react": 5886,
      "OK": 5887,
      "Ġshape": 5888,
      "Ġestab": 5889,
      "ĠĠĠĠĠĠĠĠĠĠĠĠĠĠĠĠĠĠĠĠĠĠĠĠĠĠĠĠĠĠĠĠĠĠĠĠĠĠĠĠĠĠĠĠĠĠĠĠĠĠĠĠĠĠĠĠĠĠĠĠĠ": 5890,
      "eval": 5891,
      "Ġactivity": 5892,
      "Ġmanip": 5893,
      "forward": 5894,
      "Ġrepresentation": 5895,
      "ĠAnother": 5896,
      "SET": 5897,
      "Cache": 5898,
      "Ġincreasing": 5899,
      "Ġoperating": 5900,
      "Ġinvalid": 5901,
      "force": 5902,
      "Ġland": 5903,
      "Ġnet": 5904,
      "Ġallowed": 5905,
      "ĉd": 5906,
      "Ġthrows": 5907,
      "OC": 5908,
      "Empty": 5909,
      "Ġlooks": 5910,
      "orig": 5911,
      "Unit": 5912,
      "ĠFix": 5913,
      "Ġphot": 5914,
      "Ġ('": 5915,
      "Ġfoot": 5916,
      "Ġoutside": 5917,
      "ords": 5918,
      "Ġut": 5919,
      "expected": 5920,
      "Ġbecomes": 5921,
      "ĠProduct": 5922,
      "Ġfill": 5923,
      "ny": 5924,
      "store": 5925,
      "Ġmoment": 5926,
      "aug": 5927,
      "acts": 5928,
      "room": 5929,
      "{d": 5930,
      "Ġexport": 5931,
      "Install": 5932,
      "csharp": 5933,
      "Header": 5934,
      "ĠDescription": 5935,
      "phone": 5936,
      "cr": 5937,
      "WT": 5938,
      "ĠAPIs": 5939,
      "Ġdescribed": 5940,
      "btn": 5941,
      "Ġtempor": 5942,
      "Ġlicense": 5943,
      "entry": 5944,
      "Ġfriend": 5945,
      "vec": 5946,
      "ĠDE": 5947,
      "orizontal": 5948,
      "ä¹": 5949,
      "Ġprograms": 5950,
      "ĠSm": 5951,
      "Ġill": 5952,
      "NT": 5953,
      "Gr": 5954,
      "ĠChar": 5955,
      "Ġcustomer": 5956,
      "Ġmodified": 5957,
      "temp": 5958,
      "Ġexplore": 5959,
      "Tag": 5960,
      ".xml": 5961,
      "SELECT": 5962,
      "Ġmeet": 5963,
      "Height": 5964,
      "pite": 5965,
      "Ġlove": 5966,
      "ĠDev": 5967,
      "omen": 5968,
      "Ġmarket": 5969,
      "åį": 5970,
      "Ġentries": 5971,
      "Ġbatch": 5972,
      "Ġjson": 5973,
      "Ġobtain": 5974,
      "(X": 5975,
      "Ġwire": 5976,
      "ĠEngine": 5977,
      "Ġcook": 5978,
      "RC": 5979,
      "ðĿĳ": 5980,
      "irth": 5981,
      "uper": 5982,
      "æľī": 5983,
      "Ġchallenging": 5984,
      "Cons": 5985,
      "home": 5986,
      "DS": 5987,
      "Repository": 5988,
      "After": 5989,
      "dk": 5990,
      "Ġtags": 5991,
      "Active": 5992,
      "Red": 5993,
      "Ġdocuments": 5994,
      "Ġcreation": 5995,
      "Ġstory": 5996,
      "riends": 5997,
      "Ġcategory": 5998,
      "éĩ": 5999,
      "Ġsus": 6000,
      "ĠUsage": 6001,
      "Ġdesired": 6002,
      "{\"": 6003,
      "ĠRow": 6004,
      "Ġmoving": 6005,
      "pliance": 6006,
      "Ġunn": 6007,
      "Ġfunc": 6008,
      "framework": 6009,
      "edit": 6010,
      "=True": 6011,
      "ĠImpro": 6012,
      ";\">": 6013,
      "Ġconstraints": 6014,
      "Ġeditor": 6015,
      "ĠOptions": 6016,
      "Ġallocation": 6017,
      "Graph": 6018,
      "ĠPractices": 6019,
      "ĠâĨ": 6020,
      "refix": 6021,
      "Ġnoise": 6022,
      "entity": 6023,
      "player": 6024,
      "aged": 6025,
      "Ġscope": 6026,
      "ashboard": 6027,
      "Ġcountry": 6028,
      "oph": 6029,
      "Ġvalu": 6030,
      "iform": 6031,
      "ĠScript": 6032,
      "plays": 6033,
      "mes": 6034,
      "ĠUniversity": 6035,
      "Files": 6036,
      "hand": 6037,
      "spect": 6038,
      "Ġflexible": 6039,
      "-content": 6040,
      "ĠOption": 6041,
      "mega": 6042,
      "Ġmatter": 6043,
      "-align": 6044,
      "ĠCar": 6045,
      "Ġsuitable": 6046,
      "Ġsocial": 6047,
      "den": 6048,
      "ĠSE": 6049,
      ".java": 6050,
      "rolling": 6051,
      "Ġreturned": 6052,
      "Ġtoday": 6053,
      "ĠInternet": 6054,
      "has": 6055,
      "Ġalternative": 6056,
      "Ġgoes": 6057,
      "False": 6058,
      "Ġgets": 6059,
      "Ġdesktop": 6060,
      "agine": 6061,
      ".spring": 6062,
      "ĠContent": 6063,
      "Ġhom": 6064,
      "ĠRuntime": 6065,
      "_reg": 6066,
      "Ġinterfaces": 6067,
      "Ġfrequently": 6068,
      "Ġapps": 6069,
      "Ġlack": 6070,
      ".sw": 6071,
      "ĠWorld": 6072,
      "Ñĩ": 6073,
      "Ġselection": 6074,
      "}_{\\": 6075,
      "clus": 6076,
      "ĠMonitoring": 6077,
      "Email": 6078,
      "gy": 6079,
      "Ġdecre": 6080,
      "Book": 6081,
      "ĠContext": 6082,
      "ley": 6083,
      "Ġfra": 6084,
      "urb": 6085,
      "Ġclients": 6086,
      "username": 6087,
      "Ġrecent": 6088,
      "while": 6089,
      "ĠAm": 6090,
      "Ġsolid": 6091,
      "Ġconcurrent": 6092,
      "Container": 6093,
      "MB": 6094,
      "Ġcop": 6095,
      "Ġcomputing": 6096,
      "}^{\\": 6097,
      "----------------------------------------------------------------": 6098,
      "ih": 6099,
      "Ġcombination": 6100,
      "gn": 6101,
      "HTML": 6102,
      "Ġir": 6103,
      "ĠĠĠĠĠĠĠĠĠĠĠĠĠĠĠĠĠĠĠĠĠĠĠĠĠĠĠĠĠĠĠĠĠĠĠĠĠĠĠĠĠĠĠĠĠĠĠĠĠĠĠĠĠĠĠĠĠĠĠĠĠĠĠ": 6104,
      "Ġmanually": 6105,
      "/S": 6106,
      "ustr": 6107,
      "plicate": 6108,
      "Ġ>>": 6109,
      "ĠCommand": 6110,
      "Ġestim": 6111,
      "EB": 6112,
      "Ġgraphics": 6113,
      "(j": 6114,
      "Ġblog": 6115,
      "Ġgovern": 6116,
      "hips": 6117,
      "ĠCS": 6118,
      "Ġbre": 6119,
      "Ġsensitive": 6120,
      "Document": 6121,
      "\"));": 6122,
      "abases": 6123,
      "Ġintroduce": 6124,
      "Position": 6125,
      "antic": 6126,
      "rier": 6127,
      "_test": 6128,
      "NG": 6129,
      "rd": 6130,
      "Ġnone": 6131,
      "matrix": 6132,
      "Ġface": 6133,
      "ĠFixed": 6134,
      "Issue": 6135,
      "Ġidentifying": 6136,
      "(k": 6137,
      "(name": 6138,
      "(function": 6139,
      "formed": 6140,
      "Ġmis": 6141,
      "under": 6142,
      "Ġhighlight": 6143,
      "Ġfully": 6144,
      "Inv": 6145,
      "queue": 6146,
      "Ġmanaged": 6147,
      "ancial": 6148,
      "~\\": 6149,
      "ĠDebugging": 6150,
      "ĠMax": 6151,
      "oggle": 6152,
      "Ġexecuted": 6153,
      "ĠCreating": 6154,
      "element": 6155,
      "entials": 6156,
      "circ": 6157,
      "Ġrespond": 6158,
      "ĠGame": 6159,
      "Ġbelieve": 6160,
      ")**:": 6161,
      "Ġcareful": 6162,
      "anner": 6163,
      "ĠAv": 6164,
      "================================": 6165,
      "reshold": 6166,
      "othesis": 6167,
      "ĠRelease": 6168,
      "Ġratio": 6169,
      "ĠStandard": 6170,
      ".text": 6171,
      "ha": 6172,
      "Sum": 6173,
      "Ġinstances": 6174,
      "Ġclaim": 6175,
      "]}": 6176,
      "=(": 6177,
      "Ġoccurs": 6178,
      "onal": 6179,
      "ĠDepend": 6180,
      "_string": 6181,
      "ining": 6182,
      "ĠFROM": 6183,
      "Ġwhite": 6184,
      "Ġsorted": 6185,
      "Ġlif": 6186,
      "Ġguess": 6187,
      "Ġmapping": 6188,
      "Ġclosed": 6189,
      "Ġhit": 6190,
      "Ġcomprehensive": 6191,
      "Ġformats": 6192,
      "Ab": 6193,
      "Ġbottlenecks": 6194,
      "tilde": 6195,
      "REF": 6196,
      "services": 6197,
      "<script": 6198,
      "ĠDistribut": 6199,
      "NE": 6200,
      "ĠChe": 6201,
      "Ġmaster": 6202,
      "Users": 6203,
      "ariable": 6204,
      "ological": 6205,
      "HA": 6206,
      "Section": 6207,
      "Ġprompt": 6208,
      "Ġwide": 6209,
      "Ġ`--": 6210,
      "Ġsizes": 6211,
      "term": 6212,
      "Ġwatch": 6213,
      "ria": 6214,
      "ĠIndex": 6215,
      "omb": 6216,
      "/P": 6217,
      "Collection": 6218,
      "ĠDocker": 6219,
      "dates": 6220,
      "[:": 6221,
      "ĠReport": 6222,
      "Ġcapture": 6223,
      "Var": 6224,
      "IONS": 6225,
      "Ġdependency": 6226,
      "Ġsometimes": 6227,
      "ĠØ": 6228,
      "Ġworked": 6229,
      "ĠInstead": 6230,
      "lose": 6231,
      "Ġplugins": 6232,
      "avid": 6233,
      "Ġwarning": 6234,
      "ĠIter": 6235,
      "achines": 6236,
      "Ġcult": 6237,
      "{x": 6238,
      "mem": 6239,
      "long": 6240,
      "DO": 6241,
      "ĠEnt": 6242,
      "Ġhot": 6243,
      "conf": 6244,
      "gate": 6245,
      "Microsoft": 6246,
      "AF": 6247,
      "Ġadvant": 6248,
      "Ġrecords": 6249,
      "rs": 6250,
      "Ġreports": 6251,
      "oon": 6252,
      "Ġprotocols": 6253,
      "ĠScal": 6254,
      "description": 6255,
      "-pl": 6256,
      "Ġdepth": 6257,
      "Ġbi": 6258,
      "Ġmathemat": 6259,
      "ĠFramework": 6260,
      "Ġperformed": 6261,
      "åľ¨": 6262,
      "ĠBal": 6263,
      "ĠHead": 6264,
      "_back": 6265,
      "Ġoffset": 6266,
      "oe": 6267,
      "oman": 6268,
      "nov": 6269,
      "ections": 6270,
      "??": 6271,
      "ORD": 6272,
      "Ġrecommended": 6273,
      "Ġmount": 6274,
      "åĨ": 6275,
      "_ID": 6276,
      "tage": 6277,
      "ĠSolutions": 6278,
      "elling": 6279,
      "Ġpurch": 6280,
      "Reader": 6281,
      "Ġtrust": 6282,
      "âĢ¦": 6283,
      "Ġbits": 6284,
      "greg": 6285,
      "Ġsays": 6286,
      "Ġspect": 6287,
      "æĿ": 6288,
      "vg": 6289,
      "Level": 6290,
      "ĠSP": 6291,
      "-P": 6292,
      "Ġtopic": 6293,
      "Ġfailure": 6294,
      ".model": 6295,
      "_info": 6296,
      "Ġcand": 6297,
      "Ġcontroller": 6298,
      "inite": 6299,
      "=\"_": 6300,
      "å¯": 6301,
      "ĠProtocol": 6302,
      "edge": 6303,
      "Param": 6304,
      "auth": 6305,
      "Ġpe": 6306,
      "ields": 6307,
      "Ġcool": 6308,
      "ĠJohn": 6309,
      "typ": 6310,
      "psilon": 6311,
      "clipse": 6312,
      "/L": 6313,
      "Ġnamespace": 6314,
      "ĠSetting": 6315,
      "Ġfunctional": 6316,
      "ĠWhich": 6317,
      "Ġpull": 6318,
      "Ġvi": 6319,
      "Right": 6320,
      "\\<": 6321,
      "(N": 6322,
      "ĠStack": 6323,
      "ĠArt": 6324,
      "Ġreflect": 6325,
      "ango": 6326,
      "hest": 6327,
      "ä¸į": 6328,
      "%;": 6329,
      "rapper": 6330,
      "which": 6331,
      "Session": 6332,
      "Ġangle": 6333,
      "Ġexam": 6334,
      "elcome": 6335,
      "-group": 6336,
      "Ġ%>": 6337,
      "eks": 6338,
      "ĠTool": 6339,
      "Ġentity": 6340,
      "access": 6341,
      "rightarrow": 6342,
      "bn": 6343,
      ".an": 6344,
      "ĉĠĠĠ": 6345,
      "Ġ\"\"": 6346,
      "osh": 6347,
      ".google": 6348,
      "Ġviews": 6349,
      "Ġcamera": 6350,
      "-by": 6351,
      "Hello": 6352,
      "Ġplatforms": 6353,
      "VD": 6354,
      "redict": 6355,
      "Ġmot": 6356,
      "Ġbenefits": 6357,
      "ITY": 6358,
      "acket": 6359,
      "dule": 6360,
      "INE": 6361,
      ".Collections": 6362,
      ".write": 6363,
      "Ġinher": 6364,
      "printf": 6365,
      "Ġreduces": 6366,
      "Core": 6367,
      "Ġguid": 6368,
      "Items": 6369,
      "Ġdeployment": 6370,
      "Player": 6371,
      "Ġremember": 6372,
      "case": 6373,
      "Ġpassed": 6374,
      ".end": 6375,
      "Ġfigure": 6376,
      "ĠConsiderations": 6377,
      "Ġrecurs": 6378,
      "ĠClient": 6379,
      ".conf": 6380,
      "echan": 6381,
      "Arg": 6382,
      "Ġlever": 6383,
      "imensional": 6384,
      "ĠShow": 6385,
      "onym": 6386,
      "Ġdelay": 6387,
      "ä¸º": 6388,
      "Ġreplace": 6389,
      "ĠStat": 6390,
      "CR": 6391,
      "Ġsuggested": 6392,
      "GET": 6393,
      "cap": 6394,
      "ĠColor": 6395,
      "Ġdeveloped": 6396,
      "Ġdiagn": 6397,
      "Ġcontrols": 6398,
      "Ġleak": 6399,
      "Real": 6400,
      "ĉp": 6401,
      "Ġhidden": 6402,
      "jection": 6403,
      "Ġanalyze": 6404,
      "Ġacceler": 6405,
      "yes": 6406,
      "Debug": 6407,
      "Ġhelpful": 6408,
      "ruary": 6409,
      ")$.": 6410,
      "Ġdim": 6411,
      "pu": 6412,
      "atial": 6413,
      "witter": 6414,
      "ĠCON": 6415,
      "Ġconv": 6416,
      "Ġadv": 6417,
      "ĠQuery": 6418,
      "ignment": 6419,
      "inct": 6420,
      "Ġdead": 6421,
      "_array": 6422,
      "Are": 6423,
      "_str": 6424,
      "ĠCount": 6425,
      "-T": 6426,
      ".read": 6427,
      "Ġincreased": 6428,
      "Ġgenerally": 6429,
      "Ġstay": 6430,
      "Py": 6431,
      "Ġliter": 6432,
      "Ġdrivers": 6433,
      "ĠTask": 6434,
      "Ġvisit": 6435,
      "-off": 6436,
      "rangle": 6437,
      "Ġkeyboard": 6438,
      "çĽ": 6439,
      "ĠSettings": 6440,
      "Ġfault": 6441,
      "Ġcompile": 6442,
      "_log": 6443,
      "ĠStep": 6444,
      "Ġmanager": 6445,
      "ancements": 6446,
      "ica": 6447,
      "Ġscore": 6448,
      "ĠGitHub": 6449,
      "Ġreach": 6450,
      "ĠWin": 6451,
      "namespace": 6452,
      "system": 6453,
      "âĶĢâĶĢ": 6454,
      "Ġprefix": 6455,
      "tx": 6456,
      "epsilon": 6457,
      "Ġalmost": 6458,
      "Vert": 6459,
      ".springframework": 6460,
      "=\"\"": 6461,
      "è¾": 6462,
      "ĠÐ²": 6463,
      "ĠNe": 6464,
      "Ġsuccessfully": 6465,
      "Ġdatasets": 6466,
      "IME": 6467,
      "Ġlogin": 6468,
      "ĠNet": 6469,
      "ners": 6470,
      "_ch": 6471,
      "Each": 6472,
      "ðŁĩ": 6473,
      "ĠIssue": 6474,
      "stant": 6475,
      "ptember": 6476,
      "ilename": 6477,
      "atures": 6478,
      "plements": 6479,
      "Ġworth": 6480,
      "Dis": 6481,
      "IE": 6482,
      "Cal": 6483,
      "ĠImplementation": 6484,
      "ĠBug": 6485,
      "Ġsummary": 6486,
      "weight": 6487,
      "Ġworkflow": 6488,
      "ĠDB": 6489,
      "ĠPath": 6490,
      "ĠInc": 6491,
      "Panel": 6492,
      "ĠUpdated": 6493,
      "Make": 6494,
      "Ġarrays": 6495,
      "yy": 6496,
      "ĠFuture": 6497,
      "ĠEqu": 6498,
      "-md": 6499,
      "*(": 6500,
      ";;": 6501,
      "vention": 6502,
      "ÙĦ": 6503,
      "/T": 6504,
      "Enc": 6505,
      "anger": 6506,
      "NN": 6507,
      "\"}": 6508,
      "Br": 6509,
      "å½": 6510,
      "rees": 6511,
      "Ġstand": 6512,
      "Ġreset": 6513,
      "olume": 6514,
      "Port": 6515,
      "These": 6516,
      "Stat": 6517,
      "si": 6518,
      "Ġinteresting": 6519,
      "oved": 6520,
      "ĠSl": 6521,
      "Ġreported": 6522,
      "Ġvel": 6523,
      "Ġconflicts": 6524,
      "imately": 6525,
      "Ð¼": 6526,
      "Initial": 6527,
      "Ġdam": 6528,
      "///": 6529,
      "comment": 6530,
      "related": 6531,
      "Ġfood": 6532,
      "ngth": 6533,
      "HERE": 6534,
      "Ġclar": 6535,
      "ĠMethods": 6536,
      "Store": 6537,
      "virtual": 6538,
      "-the": 6539,
      "iar": 6540,
      "Ġbalancing": 6541,
      "Ġfails": 6542,
      "Ġunsigned": 6543,
      "Ġunc": 6544,
      "ampling": 6545,
      "riting": 6546,
      "SA": 6547,
      "ĠRest": 6548,
      "Ġreferences": 6549,
      "Ġdigital": 6550,
      "ĉelse": 6551,
      "Ġhouse": 6552,
      "Ġsched": 6553,
      "iece": 6554,
      "Ġrespectively": 6555,
      "ĠStorage": 6556,
      "Ġincorrect": 6557,
      "Ġ${\\": 6558,
      "Ġê": 6559,
      "/re": 6560,
      "Ġrestrict": 6561,
      "Ġcompare": 6562,
      "-R": 6563,
      "Ġmaps": 6564,
      "-top": 6565,
      "ĠDownload": 6566,
      "psi": 6567,
      "password": 6568,
      "Ġbattery": 6569,
      "icons": 6570,
      "ĠExamples": 6571,
      "vey": 6572,
      "Args": 6573,
      "JSON": 6574,
      "more": 6575,
      "Ġapprec": 6576,
      "-ch": 6577,
      "#if": 6578,
      ",'": 6579,
      "area": 6580,
      ")+": 6581,
      "Ġang": 6582,
      "ecution": 6583,
      "Ġdescript": 6584,
      "Ġdigit": 6585,
      "Ġresolved": 6586,
      "ctor": 6587,
      "Ind": 6588,
      "Ġresulting": 6589,
      "ĠShare": 6590,
      "ĠLat": 6591,
      "Ġunnecessary": 6592,
      ".sub": 6593,
      "cut": 6594,
      "/k": 6595,
      "uple": 6596,
      "Ġupon": 6597,
      "ups": 6598,
      "wner": 6599,
      "Ġrelationship": 6600,
      "]{": 6601,
      "last": 6602,
      "Ġcolors": 6603,
      "ĠChanges": 6604,
      "eline": 6605,
      "Be": 6606,
      "ĠBase": 6607,
      "elines": 6608,
      "ĠAT": 6609,
      "xf": 6610,
      "ĠStream": 6611,
      "Ġimpl": 6612,
      "ĠDefine": 6613,
      "Ġimproved": 6614,
      "(string": 6615,
      "Ġassume": 6616,
      "olid": 6617,
      "Ġroll": 6618,
      "mas": 6619,
      "Ġideal": 6620,
      "LOG": 6621,
      "ĠRAM": 6622,
      "Ġmix": 6623,
      "[[": 6624,
      "Ġlisten": 6625,
      "ĉĠĠ": 6626,
      "Ġground": 6627,
      "Entry": 6628,
      "Ġproof": 6629,
      "Ã³": 6630,
      "Left": 6631,
      "æ³": 6632,
      "ĠGNU": 6633,
      "prot": 6634,
      "Ġstarts": 6635,
      "ĠResource": 6636,
      "VG": 6637,
      "\\u": 6638,
      "æŀ": 6639,
      "Ġdifferences": 6640,
      "Ġrights": 6641,
      "Local": 6642,
      "items": 6643,
      "Ġcoe": 6644,
      "look": 6645,
      "Ġexpressions": 6646,
      "rum": 6647,
      ")?": 6648,
      "Ġ'/": 6649,
      "ĠOffice": 6650,
      "acking": 6651,
      "sm": 6652,
      "Ġhighly": 6653,
      "Ġdeg": 6654,
      "Ġep": 6655,
      "Password": 6656,
      "#endif": 6657,
      "ĠCache": 6658,
      "ĠImport": 6659,
      "lem": 6660,
      "common": 6661,
      "icated": 6662,
      "Ġcosts": 6663,
      "Ġshell": 6664,
      "SM": 6665,
      "icious": 6666,
      "sin": 6667,
      "Ġvaluable": 6668,
      "Ġ^": 6669,
      "itf": 6670,
      "ĠTR": 6671,
      "ultane": 6672,
      "-left": 6673,
      ".o": 6674,
      "_sub": 6675,
      "ĠChall": 6676,
      "Omega": 6677,
      "___": 6678,
      ")).": 6679,
      "IA": 6680,
      "ĠRet": 6681,
      "sw": 6682,
      "operator": 6683,
      "tmp": 6684,
      "Java": 6685,
      "CG": 6686,
      "ographic": 6687,
      "ĠConvert": 6688,
      "Ġhowever": 6689,
      "Ġneighb": 6690,
      "Ġindust": 6691,
      "Ġant": 6692,
      "Ġconversion": 6693,
      "blank": 6694,
      "Ġdecision": 6695,
      "asc": 6696,
      ".$": 6697,
      "Ġforms": 6698,
      "Parameter": 6699,
      "Ġintroduced": 6700,
      "uy": 6701,
      "ĠDirect": 6702,
      "ynomial": 6703,
      "<span": 6704,
      "Ġunless": 6705,
      "ĠSO": 6706,
      "ĠTHE": 6707,
      "-sh": 6708,
      "ury": 6709,
      "ibly": 6710,
      "iated": 6711,
      "dl": 6712,
      "ĠNotes": 6713,
      "Ġ?>": 6714,
      "apshot": 6715,
      "iveness": 6716,
      "help": 6717,
      "rief": 6718,
      "Ġparticip": 6719,
      "Parameters": 6720,
      "artment": 6721,
      "Details": 6722,
      "Dialog": 6723,
      "Ġeduc": 6724,
      "Ġtook": 6725,
      "stylesheet": 6726,
      "ulated": 6727,
      "Ġrect": 6728,
      "ĠVector": 6729,
      "Ġisol": 6730,
      "_sh": 6731,
      "-on": 6732,
      "Ġweak": 6733,
      "ĠFirefox": 6734,
      "Ġconstructor": 6735,
      "`).": 6736,
      "price": 6737,
      "ĠVirtual": 6738,
      "Ġstable": 6739,
      "ëĭ": 6740,
      "æİ": 6741,
      "Ġrepe": 6742,
      "Ġstuff": 6743,
      "tters": 6744,
      "Device": 6745,
      "Ġsegment": 6746,
      "Ġsynchronization": 6747,
      "Ġchart": 6748,
      "Ġcontinuous": 6749,
      "(value": 6750,
      "-width": 6751,
      "atory": 6752,
      "container": 6753,
      "ĠArrayList": 6754,
      "Ġreadability": 6755,
      "ĠJune": 6756,
      "tk": 6757,
      "method": 6758,
      "otype": 6759,
      "ĠTwo": 6760,
      "ĠDiscussion": 6761,
      "(B": 6762,
      "Ġroute": 6763,
      "Ġ`$": 6764,
      ",$": 6765,
      "Ġrecently": 6766,
      "cf": 6767,
      "Ġposts": 6768,
      ")-": 6769,
      "ĠException": 6770,
      "ney": 6771,
      "iately": 6772,
      "Ġindicates": 6773,
      "Ġhope": 6774,
      "Memory": 6775,
      "Ġprep": 6776,
      "<br": 6777,
      "ĠPDF": 6778,
      "Ġlargest": 6779,
      "Ġweeks": 6780,
      "mid": 6781,
      "Ġpurpose": 6782,
      "aily": 6783,
      "rastructure": 6784,
      "enance": 6785,
      "nds": 6786,
      "Ġdefining": 6787,
      "Ġsumm": 6788,
      "Ġquantum": 6789,
      "-z": 6790,
      "ĠLibrary": 6791,
      "Ġpin": 6792,
      "Ġtmp": 6793,
      "Ġnotice": 6794,
      "CO": 6795,
      "Ġanswers": 6796,
      "Ġdensity": 6797,
      "__(": 6798,
      "Ġmatches": 6799,
      "Ġ{{": 6800,
      "Ġfailures": 6801,
      "Ġpanel": 6802,
      "uling": 6803,
      "ĠâĢĶ": 6804,
      "Runtime": 6805,
      "omm": 6806,
      "rg": 6807,
      "{p": 6808,
      "ris": 6809,
      "ĠĠĠĠĠĠĠĠĠĠĠĠĠĠĠĠĠĠĠĠĠĠĠĠĠĠĠĠĠĠĠĠĠĠĠĠĠĠĠĠĠĠĠĠĠĠĠĠĠĠĠĠĠĠĠĠĠĠĠĠĠĠĠĠĠ": 6810,
      "bolds": 6811,
      "Ġ{\"": 6812,
      "Ġtokens": 6813,
      "CPP": 6814,
      "equals": 6815,
      "Ġprinci": 6816,
      "ivery": 6817,
      "inner": 6818,
      "Ġasked": 6819,
      "igen": 6820,
      "boldsymbol": 6821,
      "Ġtimeout": 6822,
      "Range": 6823,
      "Icon": 6824,
      ")\"": 6825,
      "[x": 6826,
      "Ġwent": 6827,
      "orch": 6828,
      "Ġfinding": 6829,
      "Ġfive": 6830,
      "Ġrepresenting": 6831,
      "rench": 6832,
      "ĠMySQL": 6833,
      "ster": 6834,
      "ĠCurrent": 6835,
      "orpor": 6836,
      "Target": 6837,
      "Ġnested": 6838,
      "/bin": 6839,
      "Ġspaces": 6840,
      "Rev": 6841,
      "Ġoptimized": 6842,
      "ĠRight": 6843,
      "ĠâĨĴ": 6844,
      "Ġtouch": 6845,
      ")),": 6846,
      "joy": 6847,
      "ĠExper": 6848,
      "Ġproduce": 6849,
      "ĠRole": 6850,
      "Settings": 6851,
      "Ġmatching": 6852,
      "/images": 6853,
      "uler": 6854,
      "Storage": 6855,
      "ĠLevel": 6856,
      "Category": 6857,
      "ĠChange": 6858,
      "Rel": 6859,
      "Ġwanted": 6860,
      "Ġtraditional": 6861,
      "inder": 6862,
      "Ġequivalent": 6863,
      "arant": 6864,
      "-right": 6865,
      "ĉg": 6866,
      "Ġobtained": 6867,
      "Ġmen": 6868,
      "Ġrates": 6869,
      "ACT": 6870,
      "/index": 6871,
      "ĠTH": 6872,
      "[\\": 6873,
      "ardware": 6874,
      "ĠLearning": 6875,
      "console": 6876,
      "åĮ": 6877,
      "Ġindicate": 6878,
      "Ġopp": 6879,
      "Ġfriends": 6880,
      "Network": 6881,
      "atibility": 6882,
      "Ġblue": 6883,
      "asure": 6884,
      "Ġlocated": 6885,
      "Ġnorm": 6886,
      "ussian": 6887,
      "ĉf": 6888,
      "-sm": 6889,
      "ĉcase": 6890,
      "anging": 6891,
      "_by": 6892,
      "arty": 6893,
      "Ġcrypt": 6894,
      "Async": 6895,
      "ĠOptimizing": 6896,
      "very": 6897,
      "non": 6898,
      "oles": 6899,
      "Types": 6900,
      "ĠCall": 6901,
      "Ġmouse": 6902,
      "Show": 6903,
      "éĹ": 6904,
      "Ġexit": 6905,
      "Ġindependent": 6906,
      "olar": 6907,
      "Equal": 6908,
      "-link": 6909,
      "ĠComplex": 6910,
      "ĠCopyright": 6911,
      "Ġcontract": 6912,
      "Ġcompute": 6913,
      "Template": 6914,
      "Ġnative": 6915,
      "Ġminimal": 6916,
      "Ġcompatible": 6917,
      "Ġbehind": 6918,
      "ĠDel": 6919,
      "ried": 6920,
      "fit": 6921,
      "ĠIL": 6922,
      "Ġhandles": 6923,
      "ĠAuthor": 6924,
      "Ġoptional": 6925,
      "_num": 6926,
      "ĠDetails": 6927,
      "Ġexplain": 6928,
      "<h": 6929,
      ".example": 6930,
      "ae": 6931,
      "Call": 6932,
      "-e": 6933,
      "{align": 6934,
      "Ġcausing": 6935,
      "Ġtail": 6936,
      "aur": 6937,
      "Ġsharing": 6938,
      "ĠMechan": 6939,
      "eyond": 6940,
      "ĠDisplay": 6941,
      "rb": 6942,
      "vare": 6943,
      "etes": 6944,
      "Ġexpand": 6945,
      "aul": 6946,
      "Ġhierarch": 6947,
      "(D": 6948,
      "ĠConsole": 6949,
      "Ġinvestig": 6950,
      "Ġdynamically": 6951,
      "````": 6952,
      "Ġhappens": 6953,
      "ĠLocal": 6954,
      "OUT": 6955,
      "Ġsuccessful": 6956,
      "Ġsoon": 6957,
      "_user": 6958,
      "Interface": 6959,
      "ĠMarch": 6960,
      "Ġupgrade": 6961,
      "Ġdictionary": 6962,
      "Ġinputs": 6963,
      "PG": 6964,
      "Ġolder": 6965,
      "rot": 6966,
      "emon": 6967,
      "Ġcouple": 6968,
      "Ġcoding": 6969,
      "Ġupdating": 6970,
      "Sl": 6971,
      "quare": 6972,
      "\\\"": 6973,
      "ĠDi": 6974,
      "CON": 6975,
      "Ġconsidering": 6976,
      "Ġimmediately": 6977,
      "crete": 6978,
      "avi": 6979,
      "Ð¾Ð²": 6980,
      "Ġgarbage": 6981,
      "Gamma": 6982,
      "Ġregist": 6983,
      "Ġvalidate": 6984,
      "ĠDeploy": 6985,
      "ĠFedora": 6986,
      "Ġparser": 6987,
      "ĠTherefore": 6988,
      "Ġodd": 6989,
      "Orig": 6990,
      "essions": 6991,
      "Ġminimizing": 6992,
      "BE": 6993,
      "-control": 6994,
      "Ġcollabor": 6995,
      "Ġcred": 6996,
      "ĠBoot": 6997,
      "run": 6998,
      "Ġwonder": 6999,
      "Ġsnippet": 7000,
      "ĠAN": 7001,
      "Ġlayers": 7002,
      "Ġ'./": 7003,
      "Ġcreates": 7004,
      "uel": 7005,
      "Ġdro": 7006,
      "ackages": 7007,
      "Ġcame": 7008,
      "ĠInstallation": 7009,
      "rev": 7010,
      "ĠĠĠĠĠĠĠĠĠĠĠĠĠĠĠĠĠĠĠĠĠĠĠĠĠĠĠĠĠĠĠĠĠĠĠĠĠĠĠĠĠĠĠĠĠĠĠĠĠĠĠĠĠĠĠĠĠĠĠĠĠĠĠĠĠĠĠ": 7011,
      "win": 7012,
      "Ġvulnerabilities": 7013,
      "ĠBasic": 7014,
      "_url": 7015,
      "Ġoccurre": 7016,
      "ĠOctober": 7017,
      "Ġflags": 7018,
      "ĠÑģ": 7019,
      "Copy": 7020,
      "Ġstandards": 7021,
      "ORM": 7022,
      "\\,": 7023,
      "Ġmerge": 7024,
      "ĠApril": 7025,
      "Ġcentral": 7026,
      "patch": 7027,
      "Ġmanual": 7028,
      "Game": 7029,
      "Ġtrade": 7030,
      "Ġstructured": 7031,
      "Ġï": 7032,
      "Widget": 7033,
      "vlet": 7034,
      "Ġfilters": 7035,
      "ĠArchitect": 7036,
      "address": 7037,
      "Ġcertificate": 7038,
      "orer": 7039,
      "Ġintegrated": 7040,
      "_EX": 7041,
      "Ġrecovery": 7042,
      "TS": 7043,
      "Ġclock": 7044,
      "ĠEurop": 7045,
      "ĠMedia": 7046,
      "Total": 7047,
      "Yes": 7048,
      "application": 7049,
      "_un": 7050,
      "des": 7051,
      ".NET": 7052,
      "ERROR": 7053,
      "ĠOnce": 7054,
      "Obj": 7055,
      "Ġmovie": 7056,
      "Ġprocessed": 7057,
      "Ġwave": 7058,
      "-ex": 7059,
      "Multi": 7060,
      "/A": 7061,
      "Ġbugs": 7062,
      ".exe": 7063,
      "Ġadministr": 7064,
      "Ġdiscover": 7065,
      ")$,": 7066,
      "Ð´": 7067,
      "encing": 7068,
      "Ġdeal": 7069,
      "inger": 7070,
      "Ġtechnologies": 7071,
      "Font": 7072,
      "Ġinflu": 7073,
      "JS": 7074,
      "Ġscan": 7075,
      "æį": 7076,
      "ĉĠ": 7077,
      "Ġreduced": 7078,
      "Ġcompletely": 7079,
      "Please": 7080,
      "axis": 7081,
      "Ġcov": 7082,
      "varepsilon": 7083,
      "irmware": 7084,
      "Ġaxis": 7085,
      "KEY": 7086,
      "ĠMain": 7087,
      "END": 7088,
      "background": 7089,
      "ĠSimple": 7090,
      "ĠJanuary": 7091,
      "essional": 7092,
      "/sh": 7093,
      "Ġnavigation": 7094,
      "Ġstage": 7095,
      "Ġroles": 7096,
      "Ġpopulation": 7097,
      "Ġsides": 7098,
      "arter": 7099,
      "}>": 7100,
      "Ġvary": 7101,
      "Sign": 7102,
      "document": 7103,
      "}}$": 7104,
      "Ġrestart": 7105,
      "inline": 7106,
      "UID": 7107,
      "Ġtrain": 7108,
      "ATCH": 7109,
      "lies": 7110,
      "Ġsil": 7111,
      "STR": 7112,
      "Queue": 7113,
      "ublish": 7114,
      "transform": 7115,
      "Ġsimultane": 7116,
      "Ġcards": 7117,
      "ä»¥": 7118,
      "sequence": 7119,
      "ĠTeam": 7120,
      "Ġtreat": 7121,
      "Ġnight": 7122,
      "ĠLong": 7123,
      "ĠSn": 7124,
      "Problem": 7125,
      "Adapter": 7126,
      "ĠGuide": 7127,
      "Ġimportance": 7128,
      "ball": 7129,
      "$(": 7130,
      "Ġidentity": 7131,
      "Ġderivative": 7132,
      "ĠJuly": 7133,
      "ĠTypes": 7134,
      "osite": 7135,
      "Ġdisplayed": 7136,
      "Ġprecision": 7137,
      "iny": 7138,
      "elves": 7139,
      "Global": 7140,
      "ĠBo": 7141,
      "dc": 7142,
      "ĠTreeNode": 7143,
      "Host": 7144,
      "ĠItem": 7145,
      "Integr": 7146,
      "assets": 7147,
      "asy": 7148,
      "Program": 7149,
      "ĠSerial": 7150,
      "Utils": 7151,
      "'))": 7152,
      "%%%%": 7153,
      "Ġplaying": 7154,
      "\"],": 7155,
      "ASE": 7156,
      "Ġanalyzing": 7157,
      "OME": 7158,
      "URE": 7159,
      "Ġprofiling": 7160,
      "jango": 7161,
      "FIG": 7162,
      "ĠAppro": 7163,
      "Ver": 7164,
      "Co": 7165,
      "ĠEdit": 7166,
      "Ġaccessible": 7167,
      "filter": 7168,
      "Ġcompet": 7169,
      "Ġincrement": 7170,
      "Common": 7171,
      "Ġtransl": 7172,
      "}-": 7173,
      "ĠAng": 7174,
      "Ġdisable": 7175,
      "iverse": 7176,
      "ytics": 7177,
      "ael": 7178,
      "è§": 7179,
      "how": 7180,
      "=\"../": 7181,
      "Ġcontents": 7182,
      "Ġsecret": 7183,
      "ä¼": 7184,
      "ĠâĪĴ": 7185,
      "TF": 7186,
      ".swing": 7187,
      "_state": 7188,
      "Tags": 7189,
      "produ": 7190,
      "Ġhtml": 7191,
      "Rect": 7192,
      "utils": 7193,
      "Ġmachines": 7194,
      "property": 7195,
      "ĠTitle": 7196,
      "oj": 7197,
      "Ġimplements": 7198,
      "Ġwid": 7199,
      "Ġsmart": 7200,
      "(id": 7201,
      "Ġusername": 7202,
      "Ġdivided": 7203,
      "MM": 7204,
      "zip": 7205,
      ".open": 7206,
      "æĹ¶": 7207,
      "ĠBit": 7208,
      "dis": 7209,
      "\\)": 7210,
      "iet": 7211,
      ".cpp": 7212,
      "Ġmitig": 7213,
      "/css": 7214,
      "Init": 7215,
      "ĠCent": 7216,
      "Ġplayers": 7217,
      "ĠGerm": 7218,
      "VC": 7219,
      "ĠValidation": 7220,
      "(\"#": 7221,
      "ĠAddress": 7222,
      "åı¯": 7223,
      "ĠSection": 7224,
      "(nums": 7225,
      "ĠInterface": 7226,
      "Ġlost": 7227,
      "/en": 7228,
      "Ġmsg": 7229,
      "ĠConf": 7230,
      "Ġtowards": 7231,
      "Ġcurve": 7232,
      "Ġworkload": 7233,
      "ĠRob": 7234,
      "Ġopport": 7235,
      "ME": 7236,
      "Connect": 7237,
      "asons": 7238,
      "Ġlabels": 7239,
      "Ġfavor": 7240,
      "ĠProcessing": 7241,
      "UD": 7242,
      "BF": 7243,
      "-Time": 7244,
      "Ġmeasures": 7245,
      "Ġ\"<": 7246,
      "Ġcomputation": 7247,
      "notations": 7248,
      ",y": 7249,
      "ests": 7250,
      "Ġtransactions": 7251,
      "Ġfollowed": 7252,
      ")</": 7253,
      "`**:": 7254,
      "Ġdatabases": 7255,
      "Optim": 7256,
      "oration": 7257,
      "Ġsamples": 7258,
      "_int": 7259,
      "Ġhour": 7260,
      "ĠDiffer": 7261,
      "Ġmotion": 7262,
      "POST": 7263,
      "Ġwidget": 7264,
      "Thanks": 7265,
      "ĠAction": 7266,
      "à¥": 7267,
      "ERS": 7268,
      "'])": 7269,
      "Ġvisible": 7270,
      "Ġtransp": 7271,
      "PRO": 7272,
      "Ġcodes": 7273,
      "Ġofficial": 7274,
      "blems": 7275,
      "ĠSch": 7276,
      "Ġintegrate": 7277,
      "Ġte": 7278,
      "Ġletters": 7279,
      "ye": 7280,
      "footer": 7281,
      "ĠTem": 7282,
      "TL": 7283,
      "Ġbus": 7284,
      ".error": 7285,
      "El": 7286,
      "ĠTLS": 7287,
      "bum": 7288,
      "Ġchallenge": 7289,
      "That": 7290,
      "ĠCaching": 7291,
      "ĠHome": 7292,
      ".github": 7293,
      "-and": 7294,
      "_length": 7295,
      "plications": 7296,
      "PA": 7297,
      "Ġinvolved": 7298,
      "ĠiPhone": 7299,
      "Man": 7300,
      "ighest": 7301,
      "CI": 7302,
      "upload": 7303,
      "arest": 7304,
      "ymmetric": 7305,
      "Ġdivis": 7306,
      "Ġedges": 7307,
      "Ġinteract": 7308,
      "fd": 7309,
      "ocs": 7310,
      "ä¸Ģä¸ª": 7311,
      "irror": 7312,
      "nce": 7313,
      "ĠStates": 7314,
      "structured": 7315,
      "register": 7316,
      "&#": 7317,
      "Ġthus": 7318,
      "Display": 7319,
      "XML": 7320,
      "æĢ": 7321,
      "Ġpressure": 7322,
      "Ġaccessed": 7323,
      "-center": 7324,
      "IGN": 7325,
      "Ġstock": 7326,
      "figure": 7327,
      "Changed": 7328,
      "ĠEar": 7329,
      "Ġnice": 7330,
      "scribe": 7331,
      "ĠBuilding": 7332,
      "aste": 7333,
      "Ġmaybe": 7334,
      "parse": 7335,
      "Requ": 7336,
      "Ġball": 7337,
      "ĠStudies": 7338,
      "Ġ''": 7339,
      "Ġinteractions": 7340,
      "Long": 7341,
      "('#": 7342,
      "('/": 7343,
      "-scale": 7344,
      "wd": 7345,
      "oms": 7346,
      "eclipse": 7347,
      "Ġdetail": 7348,
      "-com": 7349,
      "-source": 7350,
      "ĠNext": 7351,
      "Ġfamil": 7352,
      "Ġreverse": 7353,
      ".getElement": 7354,
      "Card": 7355,
      "AV": 7356,
      "Ġforum": 7357,
      "ĠDocumentation": 7358,
      "Ġalgebra": 7359,
      "Ġmother": 7360,
      "call": 7361,
      "ĠActive": 7362,
      "Download": 7363,
      "ĠPy": 7364,
      "Ġcarefully": 7365,
      "Ġmer": 7366,
      "BO": 7367,
      "Record": 7368,
      "Ġ``": 7369,
      "}`": 7370,
      "Ġsituation": 7371,
      "<Integer": 7372,
      "ĠStatus": 7373,
      "icket": 7374,
      "?\"": 7375,
      "Ptr": 7376,
      "Ġmask": 7377,
      "Ġnature": 7378,
      "Ġpairs": 7379,
      "allow": 7380,
      "async": 7381,
      "Ġscaling": 7382,
      "Ġconsumption": 7383,
      "ĠLanguage": 7384,
      "Account": 7385,
      "OPT": 7386,
      ".Data": 7387,
      "orter": 7388,
      "_se": 7389,
      "Ġfair": 7390,
      "ĠLoop": 7391,
      "ournal": 7392,
      "DEBUG": 7393,
      "Ġstudent": 7394,
      "Ġorigin": 7395,
      "menu": 7396,
      "PO": 7397,
      "Se": 7398,
      "small": 7399,
      "Ġaggreg": 7400,
      "ĠEnvironment": 7401,
      "append": 7402,
      "Ġgain": 7403,
      "Ġmal": 7404,
      "Ġavailability": 7405,
      "_map": 7406,
      "weet": 7407,
      "Ġbuilds": 7408,
      "ĠExcel": 7409,
      "å¾": 7410,
      "Ġobserved": 7411,
      "Params": 7412,
      "Ġstudies": 7413,
      "iced": 7414,
      "Ġcharg": 7415,
      "_NAME": 7416,
      "Ġdigits": 7417,
      "Json": 7418,
      "Ġvariety": 7419,
      "Ġyourself": 7420,
      "Ġencountered": 7421,
      "login": 7422,
      "ĠAltern": 7423,
      "ĠCond": 7424,
      "Ġdeveloper": 7425,
      "Ġvoltage": 7426,
      "Ġorganization": 7427,
      "Ġcoordinates": 7428,
      "-->": 7429,
      "ç½": 7430,
      "ĥ½": 7431,
      "Database": 7432,
      ".parse": 7433,
      "/or": 7434,
      "mb": 7435,
      "ybrid": 7436,
      ".Generic": 7437,
      "cur": 7438,
      "eros": 7439,
      "double": 7440,
      "ĠMultiple": 7441,
      "ĠLook": 7442,
      "ITE": 7443,
      "istence": 7444,
      "Ġpi": 7445,
      "FE": 7446,
      ".getElementById": 7447,
      "ĠBeyond": 7448,
      "ĠNon": 7449,
      "Ġstraightforward": 7450,
      "(result": 7451,
      "Ġconfiguring": 7452,
      "ĠPerl": 7453,
      "Ġsafe": 7454,
      "ĠWill": 7455,
      "require": 7456,
      "USE": 7457,
      "wall": 7458,
      "Mark": 7459,
      "ĠUnity": 7460,
      "ĠUtil": 7461,
      ".Write": 7462,
      "Handle": 7463,
      "Ġproposed": 7464,
      "}}{": 7465,
      "Ġflexibility": 7466,
      "_text": 7467,
      "Ġsites": 7468,
      "Ġinline": 7469,
      "Ġstrength": 7470,
      "gi": 7471,
      "Ġagree": 7472,
      ".max": 7473,
      "PR": 7474,
      "||": 7475,
      "geq": 7476,
      "params": 7477,
      "Ġindicating": 7478,
      "Ġtested": 7479,
      "Ġinterested": 7480,
      "ĠNovember": 7481,
      "ĠMode": 7482,
      "Ġchain": 7483,
      "ĠUnited": 7484,
      "dp": 7485,
      "cloud": 7486,
      "Ġstatements": 7487,
      "å·": 7488,
      "ĠTim": 7489,
      "âĢĻre": 7490,
      "(true": 7491,
      "ĠSSL": 7492,
      "ĠIntroduction": 7493,
      "rint": 7494,
      "Ġcells": 7495,
      "ulating": 7496,
      "enn": 7497,
      "Ġwalk": 7498,
      "Ġwhose": 7499,
      "_con": 7500,
      "-qu": 7501,
      "Ġheat": 7502,
      "_at": 7503,
      "/.": 7504,
      "ama": 7505,
      "Ġcriter": 7506,
      "Ġhandler": 7507,
      "{H": 7508,
      "ĠPerson": 7509,
      "ĠBlack": 7510,
      "ĠFig": 7511,
      "Ġoverl": 7512,
      "Enter": 7513,
      "Ã¶": 7514,
      "ĠDecember": 7515,
      "Ġdie": 7516,
      "ubern": 7517,
      "QU": 7518,
      "Ġlinked": 7519,
      "(z": 7520,
      "Me": 7521,
      "cell": 7522,
      "Ġremaining": 7523,
      ".user": 7524,
      "izable": 7525,
      "dec": 7526,
      "ticles": 7527,
      "/CD": 7528,
      "Ġ..": 7529,
      "Ġtemplates": 7530,
      "\\/": 7531,
      "angular": 7532,
      "ĠPRO": 7533,
      "åĢ": 7534,
      "Body": 7535,
      "Ġfilm": 7536,
      "ĠChrist": 7537,
      "ĠListNode": 7538,
      "atalog": 7539,
      "Ġsections": 7540,
      "acebook": 7541,
      "_com": 7542,
      "Ġreserv": 7543,
      "IV": 7544,
      "np": 7545,
      "ĠÐ½": 7546,
      "gan": 7547,
      "Ġbind": 7548,
      "ubernetes": 7549,
      "erial": 7550,
      "ĠHelp": 7551,
      "Advanced": 7552,
      "Ġregions": 7553,
      "Ġsaved": 7554,
      "Ġnews": 7555,
      "byte": 7556,
      "Ġcandid": 7557,
      "Ġdiagram": 7558,
      "Ġabsolute": 7559,
      "icker": 7560,
      "}</": 7561,
      "ĠAllow": 7562,
      "ĠSize": 7563,
      "onds": 7564,
      "Ġskills": 7565,
      "Ġready": 7566,
      "none": 7567,
      "ä¿": 7568,
      "Ġheav": 7569,
      "ĠHD": 7570,
      "Ġprocedure": 7571,
      "ĠStore": 7572,
      "chi": 7573,
      "Ġsys": 7574,
      "ĠDon": 7575,
      "ĠSugg": 7576,
      "pring": 7577,
      "Ġlimits": 7578,
      ".To": 7579,
      ">>>": 7580,
      "-Based": 7581,
      "sys": 7582,
      "Additional": 7583,
      "Ġintended": 7584,
      "alax": 7585,
      "roubleshooting": 7586,
      "?>": 7587,
      "Ġbooks": 7588,
      "ĠEclipse": 7589,
      "uri": 7590,
      "ĠStudy": 7591,
      "riority": 7592,
      "ferences": 7593,
      "ipher": 7594,
      "bc": 7595,
      "Ġcalculated": 7596,
      "Ġ\\,": 7597,
      "Names": 7598,
      "bm": 7599,
      "ç¬": 7600,
      "plaintext": 7601,
      "loading": 7602,
      "SO": 7603,
      "-k": 7604,
      "ĠMachine": 7605,
      "_SIZE": 7606,
      "(*": 7607,
      "localhost": 7608,
      "-tr": 7609,
      "-side": 7610,
      "lat": 7611,
      "è¡¨": 7612,
      ".path": 7613,
      "-name": 7614,
      "Properties": 7615,
      "ĠÙ": 7616,
      "-free": 7617,
      "Ġsafety": 7618,
      "itfalls": 7619,
      "ĠSeptember": 7620,
      "NA": 7621,
      "Ġcharge": 7622,
      "Main": 7623,
      "Ġsending": 7624,
      "Ġupgrad": 7625,
      "Ġteach": 7626,
      "Ġleave": 7627,
      "atches": 7628,
      "bes": 7629,
      "ĠFormat": 7630,
      "anies": 7631,
      ".V": 7632,
      "vc": 7633,
      "files": 7634,
      "ashes": 7635,
      "obs": 7636,
      "While": 7637,
      "hidden": 7638,
      "aptop": 7639,
      "IOS": 7640,
      "ĠResources": 7641,
      "ĠSort": 7642,
      "Ġpacket": 7643,
      "Performance": 7644,
      "Ġconduct": 7645,
      "structor": 7646,
      "Ġdegree": 7647,
      "article": 7648,
      "]=": 7649,
      "chain": 7650,
      "ĠSimilar": 7651,
      "-dev": 7652,
      "Ġvelocity": 7653,
      "ĠAugust": 7654,
      "Ġintern": 7655,
      "Ġideas": 7656,
      "inst": 7657,
      "ĠInstruction": 7658,
      "Ġextensions": 7659,
      "Hi": 7660,
      "Ġsizeof": 7661,
      "ĠWordPress": 7662,
      "ĠCert": 7663,
      "Ġ(*": 7664,
      "Support": 7665,
      "AE": 7666,
      "ĠRefer": 7667,
      "Ġresponsive": 7668,
      "Ġadmin": 7669,
      "Ġyoung": 7670,
      "ldots": 7671,
      "Render": 7672,
      "osen": 7673,
      "ano": 7674,
      "Ġcalculations": 7675,
      "ĠQuestions": 7676,
      "-end": 7677,
      "ifiers": 7678,
      "Ġpreventing": 7679,
      "ky": 7680,
      "Ġparams": 7681,
      "ĠMult": 7682,
      "Ġrepresented": 7683,
      "Ġprem": 7684,
      "Ġintegrating": 7685,
      "GR": 7686,
      "Ġbring": 7687,
      "Ġpractical": 7688,
      "_col": 7689,
      "Ġtrace": 7690,
      "relation": 7691,
      "Ġbirth": 7692,
      ".lang": 7693,
      "Ġproxy": 7694,
      "Ġdom": 7695,
      "ĠPrint": 7696,
      ".new": 7697,
      "MT": 7698,
      "Ġelimin": 7699,
      "Ident": 7700,
      "Ġfinite": 7701,
      "ulator": 7702,
      "ĠParallel": 7703,
      "varphi": 7704,
      "Ã¼": 7705,
      "Ġ\"-": 7706,
      "Ġgit": 7707,
      "ĠIO": 7708,
      "á»": 7709,
      "Ġgenerating": 7710,
      "inuous": 7711,
      "Ġhypothesis": 7712,
      "netic": 7713,
      "aker": 7714,
      "å¹": 7715,
      "Ġbin": 7716,
      "account": 7717,
      "/src": 7718,
      "Ġapproaches": 7719,
      "\\$": 7720,
      "resource": 7721,
      "ellow": 7722,
      "Ġfinancial": 7723,
      "ĠRemove": 7724,
      "Ġseam": 7725,
      "ĠSep": 7726,
      "ightly": 7727,
      "Callback": 7728,
      ">.": 7729,
      "Effect": 7730,
      "'];": 7731,
      "Ġdescribe": 7732,
      "Ġwidely": 7733,
      ".a": 7734,
      "perl": 7735,
      "(()": 7736,
      "fill": 7737,
      "token": 7738,
      "Ġrelationships": 7739,
      "ĠFebruary": 7740,
      "(\"/": 7741,
      "-con": 7742,
      "Ġspeak": 7743,
      "Ġconvers": 7744,
      "pping": 7745,
      "Ġediting": 7746,
      "BD": 7747,
      "Ġlaunch": 7748,
      "ipping": 7749,
      "Ġcalling": 7750,
      "Ġdimension": 7751,
      "fc": 7752,
      "Ġsix": 7753,
      "ÂłÂłÂł": 7754,
      "ĠMag": 7755,
      "Ġfragment": 7756,
      "Ġremoving": 7757,
      "Ġmillion": 7758,
      "Ġok": 7759,
      "ĠFrench": 7760,
      "Ġenjoy": 7761,
      "(key": 7762,
      "ITH": 7763,
      "poses": 7764,
      "IND": 7765,
      "CTION": 7766,
      "ĠĠĠĠĠĠĠĠĠĠĠĠĠĠĠĠĠĠĠĠĠĠĠĠĠĠĠĠĠĠĠĠĠĠĠĠĠĠĠĠĠĠĠĠĠĠĠĠĠĠĠĠĠĠĠĠĠĠĠĠĠĠĠĠĠĠĠĠĠ": 7767,
      "ufact": 7768,
      "ĠOrder": 7769,
      "lab": 7770,
      "Ġtopics": 7771,
      "ãĢģ": 7772,
      "Ġthroughput": 7773,
      "åŃĹ": 7774,
      "Release": 7775,
      "ĠCR": 7776,
      "Ġinteraction": 7777,
      "Your": 7778,
      "Ġlicens": 7779,
      "Ġinternet": 7780,
      "xff": 7781,
      "Reference": 7782,
      ".\\": 7783,
      "icode": 7784,
      "langle": 7785,
      "ĠBar": 7786,
      "Ġsufficient": 7787,
      "ĠDirectory": 7788,
      "oving": 7789,
      "phas": 7790,
      "ĠPlay": 7791,
      "(str": 7792,
      "ued": 7793,
      "Ġstability": 7794,
      "Socket": 7795,
      "ĠAmerican": 7796,
      "pact": 7797,
      "ĠBas": 7798,
      "Ġcapacity": 7799,
      "Ġhaven": 7800,
      "_start": 7801,
      "security": 7802,
      "required": 7803,
      "ixels": 7804,
      "ĠOnly": 7805,
      "lim": 7806,
      "unsigned": 7807,
      "è¦": 7808,
      "total": 7809,
      "Iter": 7810,
      "ĠGT": 7811,
      "Profile": 7812,
      "Ġtutorial": 7813,
      "Values": 7814,
      "Ġnotes": 7815,
      "Matrix": 7816,
      "/javascript": 7817,
      "metic": 7818,
      "duino": 7819,
      "apes": 7820,
      "authorized": 7821,
      "Ġæ": 7822,
      "Ġbul": 7823,
      "Ġsuff": 7824,
      "Ġ'@": 7825,
      "Ġdistinct": 7826,
      "oted": 7827,
      ":(": 7828,
      "agraph": 7829,
      "ĠAnt": 7830,
      "ACE": 7831,
      "-N": 7832,
      "Ġfall": 7833,
      "Security": 7834,
      "Ġ\"\",": 7835,
      "LAG": 7836,
      "hib": 7837,
      "Ġtax": 7838,
      "ĠDevice": 7839,
      "ĠXP": 7840,
      "Ġdisabled": 7841,
      "Ġprintf": 7842,
      "ians": 7843,
      "++++++++": 7844,
      "Ġxml": 7845,
      "urch": 7846,
      "emy": 7847,
      "Ġattention": 7848,
      "ĠCenter": 7849,
      ".key": 7850,
      "Ġgeneric": 7851,
      "sd": 7852,
      "anches": 7853,
      "è¡Į": 7854,
      "egative": 7855,
      "ĠModule": 7856,
      "Ġspecifically": 7857,
      "\\label": 7858,
      "Ġaware": 7859,
      "ico": 7860,
      "Ġanimations": 7861,
      "Ġresponses": 7862,
      "stat": 7863,
      "![": 7864,
      "_dir": 7865,
      "Ġletter": 7866,
      "çĤ": 7867,
      "Ġrepeated": 7868,
      "ĠUpdates": 7869,
      "Ġimg": 7870,
      ".H": 7871,
      "Ġchannels": 7872,
      "adr": 7873,
      "(P": 7874,
      "_var": 7875,
      "Am": 7876,
      "Ġseamless": 7877,
      "Ġfig": 7878,
      "/String": 7879,
      "ounc": 7880,
      "front": 7881,
      "onom": 7882,
      "Ġintr": 7883,
      "Ġearlier": 7884,
      "ĠExpress": 7885,
      "ĠProperties": 7886,
      "ads": 7887,
      "igital": 7888,
      "ĠCommun": 7889,
      "ĠFin": 7890,
      "Ġflash": 7891,
      "GE": 7892,
      "-World": 7893,
      "ĠLcom": 7894,
      "rowsers": 7895,
      "Ke": 7896,
      "Ġparam": 7897,
      "det": 7898,
      "endor": 7899,
      "umin": 7900,
      "drop": 7901,
      "askell": 7902,
      "umes": 7903,
      "primary": 7904,
      "inx": 7905,
      "Compar": 7906,
      "åĩº": 7907,
      "Ð°Ð½": 7908,
      "ĠButton": 7909,
      "gu": 7910,
      "elt": 7911,
      "(!": 7912,
      "_date": 7913,
      "_ptr": 7914,
      "illed": 7915,
      "{A": 7916,
      "ĠDOM": 7917,
      "erged": 7918,
      "Report": 7919,
      "(false": 7920,
      "pped": 7921,
      "Ġsmallest": 7922,
      "acks": 7923,
      "ÃŃ": 7924,
      "ĠTO": 7925,
      "DT": 7926,
      "Ġtracking": 7927,
      "ĠAuto": 7928,
      "yr": 7929,
      "Ġcircle": 7930,
      "itution": 7931,
      "Sort": 7932,
      "(u": 7933,
      "ecause": 7934,
      "/a": 7935,
      "Ġpublish": 7936,
      "Ġcombined": 7937,
      "omal": 7938,
      "Api": 7939,
      "Ġguarant": 7940,
      "Ġ\\]": 7941,
      "Ġscenario": 7942,
      "ĠÏ": 7943,
      "Ġwaiting": 7944,
      "}+": 7945,
      "Ġsimplify": 7946,
      "Ġhighest": 7947,
      "refs": 7948,
      "itch": 7949,
      ";i": 7950,
      "\":\"": 7951,
      ":</": 7952,
      "Ġelif": 7953,
      "Ġrotation": 7954,
      "ned": 7955,
      "rial": 7956,
      "ker": 7957,
      "ĠInv": 7958,
      ")->": 7959,
      "Selector": 7960,
      "Ġabstract": 7961,
      "ager": 7962,
      "obe": 7963,
      "pa": 7964,
      "Ġdealing": 7965,
      "plus": 7966,
      "_error": 7967,
      "Ġpolynomial": 7968,
      "aws": 7969,
      "Equals": 7970,
      "oting": 7971,
      "Ġretrieve": 7972,
      "BSD": 7973,
      "Ġimplementations": 7974,
      "-th": 7975,
      "(user": 7976,
      "Ġconcer": 7977,
      "Ġfn": 7978,
      "Ġtexture": 7979,
      "Ġcomparison": 7980,
      "sf": 7981,
      "Ġgas": 7982,
      "ĠFilter": 7983,
      "ancel": 7984,
      "(root": 7985,
      "Ġcircuit": 7986,
      "<string": 7987,
      "ĠSolve": 7988,
      "ĠPlatform": 7989,
      "{P": 7990,
      "åħ¥": 7991,
      "Ġdisplays": 7992,
      "lers": 7993,
      "bing": 7994,
      "Ġlimitations": 7995,
      "docs": 7996,
      "ĠII": 7997,
      "Ġconcepts": 7998,
      "instance": 7999,
      "Ġcompleted": 8000,
      "Ġsimultaneously": 8001,
      "Ġsimulation": 8002,
      "_node": 8003,
      "Ġstrict": 8004,
      "ayment": 8005,
      "ĠCisco": 8006,
      "Ġecon": 8007,
      "âĢĻm": 8008,
      "{F": 8009,
      "ĠCr": 8010,
      "ĠTV": 8011,
      "Posted": 8012,
      "ideos": 8013,
      "ĠAuthentication": 8014,
      "cludes": 8015,
      "Join": 8016,
      "Ġsaying": 8017,
      "Ġstoring": 8018,
      "Ġsong": 8019,
      "equal": 8020,
      "parent": 8021,
      "ĠSDK": 8022,
      "opping": 8023,
      "()->": 8024,
      "Ġpolit": 8025,
      "Ġapplying": 8026,
      "åĪ°": 8027,
      "ä»¶": 8028,
      "Ġdepending": 8029,
      "Ġgreen": 8030,
      "Dir": 8031,
      "Ġthreat": 8032,
      "Ġbey": 8033,
      "_for": 8034,
      "Ġtransformation": 8035,
      "Ġlisted": 8036,
      "Ġthinking": 8037,
      "ARR": 8038,
      "inity": 8039,
      "selected": 8040,
      "åĴ": 8041,
      "uilt": 8042,
      "ĠFeedback": 8043,
      "Writer": 8044,
      "_per": 8045,
      "ĠFont": 8046,
      "ĠComponent": 8047,
      "/B": 8048,
      "ĠĠĠĠĠĠĠĠĠĠĠĠĠĠĠĠĠĠĠĠĠĠĠĠĠĠĠĠĠĠĠĠĠĠĠĠĠĠĠĠĠĠĠĠĠĠĠĠĠĠĠĠĠĠĠĠĠĠĠĠĠĠĠĠĠĠĠĠĠĠĠ": 8049,
      "ĠPatterns": 8050,
      "Ġreve": 8051,
      "-block": 8052,
      "FD": 8053,
      "ariant": 8054,
      "ĠAvoid": 8055,
      "ĠCO": 8056,
      "itories": 8057,
      "Ġbeyond": 8058,
      "dot": 8059,
      "Ġtranslate": 8060,
      "Ġaria": 8061,
      "Ġcycle": 8062,
      "å®ļ": 8063,
      "overline": 8064,
      "lines": 8065,
      "isting": 8066,
      "amsung": 8067,
      "ĠIT": 8068,
      "MI": 8069,
      "\"`": 8070,
      "Ġactivities": 8071,
      "uet": 8072,
      "Ġcos": 8073,
      "Av": 8074,
      "CB": 8075,
      "ĠSun": 8076,
      "ateway": 8077,
      "ĠFollow": 8078,
      "Ġexperiences": 8079,
      "................": 8080,
      "ĠExchange": 8081,
      "ÐµÑĢ": 8082,
      "*t": 8083,
      "ithmetic": 8084,
      "gers": 8085,
      "Ġtransport": 8086,
      "anes": 8087,
      "ogram": 8088,
      "Impl": 8089,
      "ini": 8090,
      "Ġraise": 8091,
      "Ġframeworks": 8092,
      "(num": 8093,
      "ĠAWS": 8094,
      "ĠUnit": 8095,
      "-click": 8096,
      "Ġanimation": 8097,
      "Ġshift": 8098,
      "ĠPlugin": 8099,
      "Only": 8100,
      "Ġgovernment": 8101,
      "ĠGood": 8102,
      "Ġfeed": 8103,
      "Ġbasis": 8104,
      "ĠVideo": 8105,
      "ĠSur": 8106,
      "Ġdistribute": 8107,
      "Delete": 8108,
      "Cond": 8109,
      "Ġcompliance": 8110,
      "ĠSetup": 8111,
      "Ġestimate": 8112,
      "Ġrank": 8113,
      "Ġsudo": 8114,
      "Ġextrem": 8115,
      ".ch": 8116,
      "ĠConclusion": 8117,
      "ĠWorks": 8118,
      "ĉĉĉĉĉĉĉĉĉ": 8119,
      "rices": 8120,
      "odec": 8121,
      "Ġtrees": 8122,
      "Ġplane": 8123,
      "-G": 8124,
      "Ġshowing": 8125,
      "ĠOperations": 8126,
      "-sp": 8127,
      "^{(": 8128,
      "Ġadds": 8129,
      "ĠAI": 8130,
      "ĠParameters": 8131,
      "{N": 8132,
      "Ġhistor": 8133,
      "Ġpartial": 8134,
      "Found": 8135,
      "displaystyle": 8136,
      "Ġoperators": 8137,
      "}=\\": 8138,
      "Ġcursor": 8139,
      "*m": 8140,
      "Ġdeliver": 8141,
      "Ġexpert": 8142,
      "ĠLogging": 8143,
      "{array": 8144,
      "traction": 8145,
      "&gt": 8146,
      "ĠGUI": 8147,
      "Ġpresence": 8148,
      "Ġreply": 8149,
      "Ġscalability": 8150,
      "ĠProgramming": 8151,
      "Ġreq": 8152,
      "Ġadvantage": 8153,
      "Login": 8154,
      "Ġevaluate": 8155,
      "ĠJun": 8156,
      "haps": 8157,
      "<>();": 8158,
      "Ġheap": 8159,
      "ÂłÂłÂłÂłÂłÂłÂłÂł": 8160,
      "NULL": 8161,
      "ĠGL": 8162,
      "Ġpicture": 8163,
      "Ġupper": 8164,
      "-label": 8165,
      "}[": 8166,
      "bootstrap": 8167,
      "alind": 8168,
      "ĠGreat": 8169,
      "Ġstreams": 8170,
      ".query": 8171,
      "Ġexceptions": 8172,
      "Ġsensor": 8173,
      "ĠBusiness": 8174,
      "orry": 8175,
      "Ġvertex": 8176,
      "Ġdirectories": 8177,
      "[n": 8178,
      "Big": 8179,
      "cb": 8180,
      "Down": 8181,
      "-text": 8182,
      "Ġonto": 8183,
      "ĠGrid": 8184,
      "_TYPE": 8185,
      ".status": 8186,
      "Ġregarding": 8187,
      "apse": 8188,
      "/pro": 8189,
      "Ġunknown": 8190,
      "Ġthanks": 8191,
      "Home": 8192,
      "Ġí": 8193,
      "aled": 8194,
      "Ġraw": 8195,
      "ocking": 8196,
      "onymous": 8197,
      "enable": 8198,
      "ĠLast": 8199,
      "elay": 8200,
      "Ġdrag": 8201,
      "Ġconcern": 8202,
      "ĠUN": 8203,
      "&nbsp": 8204,
      "Ġradius": 8205,
      "Ġagent": 8206,
      ".left": 8207,
      "rib": 8208,
      "ĠÐ¸": 8209,
      "ĠSecure": 8210,
      ".map": 8211,
      "Ġfundament": 8212,
      "OF": 8213,
      "PN": 8214,
      "Dynamic": 8215,
      "Ġboundary": 8216,
      "{E": 8217,
      "ĠWHERE": 8218,
      "é¡": 8219,
      "draw": 8220,
      "Ġmoved": 8221,
      "erry": 8222,
      "Prot": 8223,
      "åĴĮ": 8224,
      "Ġderived": 8225,
      "Ġexchange": 8226,
      "æĶ": 8227,
      "Ġtechnical": 8228,
      "Cert": 8229,
      "Ġjobs": 8230,
      "ĠFoundation": 8231,
      "ichael": 8232,
      "custom": 8233,
      "mazon": 8234,
      "Ġtrou": 8235,
      "Ġreplacement": 8236,
      "ĠMobile": 8237,
      "Ġincorpor": 8238,
      "/in": 8239,
      "Plugin": 8240,
      "Ġdemand": 8241,
      "ç§": 8242,
      "ĠEffect": 8243,
      "types": 8244,
      "lev": 8245,
      "ECT": 8246,
      "everaging": 8247,
      "FFFFFFFF": 8248,
      "Ġcleaned": 8249,
      "Ġpriority": 8250,
      "ĠIDE": 8251,
      "Ġsounds": 8252,
      "Admin": 8253,
      "Ġextend": 8254,
      "Ġvectors": 8255,
      "ĠMB": 8256,
      "ĠAccount": 8257,
      "kin": 8258,
      "Ġprovider": 8259,
      "riendly": 8260,
      "Ġsync": 8261,
      "reset": 8262,
      "Root": 8263,
      "{S": 8264,
      "åī": 8265,
      "trl": 8266,
      "-dr": 8267,
      "Ġplaceholder": 8268,
      "/android": 8269,
      "Ġda": 8270,
      "scope": 8271,
      "Bug": 8272,
      "utter": 8273,
      "ĠiOS": 8274,
      "Ġbeginning": 8275,
      "fe": 8276,
      "Ġbandwidth": 8277,
      ".core": 8278,
      "ĠLimit": 8279,
      "ecycle": 8280,
      "ien": 8281,
      ".X": 8282,
      "Ġundefined": 8283,
      "Ġfinally": 8284,
      "olutely": 8285,
      "-fl": 8286,
      "Ġtold": 8287,
      "Ġ`@": 8288,
      "_out": 8289,
      "ataset": 8290,
      ".config": 8291,
      "airs": 8292,
      "Ġer": 8293,
      "[-": 8294,
      "Ġrequiring": 8295,
      "Ġappe": 8296,
      "Ġste": 8297,
      "ĠIM": 8298,
      "ĠLight": 8299,
      "ĠSem": 8300,
      "Ġredirect": 8301,
      "eX": 8302,
      "Ġ!==": 8303,
      "_sum": 8304,
      "Ġelectron": 8305,
      "Ġdecimal": 8306,
      "FAULT": 8307,
      "requency": 8308,
      "Ġpublished": 8309,
      "çĤ¹": 8310,
      "eder": 8311,
      "Ġleveraging": 8312,
      "Ġdesigning": 8313,
      "_z": 8314,
      "Ag": 8315,
      "æĸĩ": 8316,
      "(@": 8317,
      "ĠNS": 8318,
      "Ġ[];": 8319,
      "Ġreader": 8320,
      "]))": 8321,
      "acs": 8322,
      "ĠMost": 8323,
      "Ġgrowth": 8324,
      "Ġsocket": 8325,
      "Ġcaused": 8326,
      ".src": 8327,
      "Ġdiscussed": 8328,
      "Ġexplicitly": 8329,
      "Ġpreviously": 8330,
      ".E": 8331,
      "hr": 8332,
      "yper": 8333,
      "nes": 8334,
      "foo": 8335,
      "-col": 8336,
      "Ġrace": 8337,
      "loader": 8338,
      "ployee": 8339,
      "Ġstatistics": 8340,
      "Ġfilename": 8341,
      "Ġloops": 8342,
      "Ġexpensive": 8343,
      "Ġsuggestions": 8344,
      "classes": 8345,
      ".view": 8346,
      "vid": 8347,
      "Ġforeach": 8348,
      "Ġinsp": 8349,
      "istical": 8350,
      "Ġoffering": 8351,
      ".remove": 8352,
      "Ġencour": 8353,
      "gener": 8354,
      "olver": 8355,
      "Ġauthent": 8356,
      "ĠON": 8357,
      "Ġinstalling": 8358,
      "Ġassigned": 8359,
      "(:": 8360,
      "Commit": 8361,
      "Ġmist": 8362,
      "ĠPS": 8363,
      "Ġutility": 8364,
      "Ġunderlying": 8365,
      "etic": 8366,
      "ĠEvalu": 8367,
      "Ġminor": 8368,
      "_cl": 8369,
      "Ġchecked": 8370,
      "Ð¿": 8371,
      "ĠMc": 8372,
      "quis": 8373,
      "Ġbuttons": 8374,
      "ĠDebian": 8375,
      "ĠTCP": 8376,
      "press": 8377,
      "ĠAlgorithms": 8378,
      ".tr": 8379,
      "iam": 8380,
      ".start": 8381,
      "Ġinstant": 8382,
      "Ġevaluation": 8383,
      "PUT": 8384,
      "ĠRA": 8385,
      "Ġfiltering": 8386,
      "Find": 8387,
      "Ġnearest": 8388,
      "Ġinstruction": 8389,
      "à¦": 8390,
      "frak": 8391,
      "Posts": 8392,
      "Ġfixes": 8393,
      "ĠBoth": 8394,
      "Ġplaces": 8395,
      "Ġ[-": 8396,
      "Ġpipelines": 8397,
      "idx": 8398,
      "ĠFigure": 8399,
      "Ġhyper": 8400,
      "Ġoverview": 8401,
      "License": 8402,
      "Ġdark": 8403,
      "{s": 8404,
      "wiki": 8405,
      ":L": 8406,
      "_X": 8407,
      "ircle": 8408,
      "hs": 8409,
      "Ġfacilit": 8410,
      "Ġalthough": 8411,
      "ĠCommunity": 8412,
      "Ġholds": 8413,
      "ARE": 8414,
      "Layer": 8415,
      "-party": 8416,
      "Ġoptimizations": 8417,
      "Ġselecting": 8418,
      "impl": 8419,
      "ARY": 8420,
      "poss": 8421,
      "ICE": 8422,
      "even": 8423,
      "incip": 8424,
      "itation": 8425,
      "ĠSets": 8426,
      "irections": 8427,
      "_config": 8428,
      "Ġcontrast": 8429,
      "ĠMail": 8430,
      "ĠPlan": 8431,
      "ìĹ": 8432,
      "Ġpiece": 8433,
      "Ġtravel": 8434,
      "Word": 8435,
      "Ġpy": 8436,
      "/(": 8437,
      "efully": 8438,
      "Ġplus": 8439,
      "Ġ##": 8440,
      "ctl": 8441,
      "Design": 8442,
      "Ġprim": 8443,
      "bitr": 8444,
      "Ġyield": 8445,
      "media": 8446,
      "ĠIts": 8447,
      "ĠPolicy": 8448,
      "Ġdeveloping": 8449,
      "Price": 8450,
      "ĠAD": 8451,
      "Ġcustomers": 8452,
      "=-": 8453,
      "ethe": 8454,
      "Tool": 8455,
      "Disc": 8456,
      "ĉString": 8457,
      "bt": 8458,
      "-bottom": 8459,
      "Contact": 8460,
      "ĠWi": 8461,
      "Ġpermission": 8462,
      "bd": 8463,
      "¿½": 8464,
      "ĠTom": 8465,
      "onic": 8466,
      "_max": 8467,
      "Pad": 8468,
      "Ġdf": 8469,
      ".test": 8470,
      "enses": 8471,
      "Ġsignals": 8472,
      "Ġstores": 8473,
      "Ġbinding": 8474,
      "ONE": 8475,
      "('.": 8476,
      "Non": 8477,
      ".assert": 8478,
      "(file": 8479,
      "è¦ģ": 8480,
      "ä¸ĭ": 8481,
      "scription": 8482,
      "(input": 8483,
      "Ġpoor": 8484,
      "illing": 8485,
      "ĠConnection": 8486,
      "Ġment": 8487,
      "BM": 8488,
      "Rece": 8489,
      "ĠâĢĺ": 8490,
      "ĠRowBox": 8491,
      "Ġplans": 8492,
      "ehavior": 8493,
      "**,": 8494,
      "ategor": 8495,
      "Ġterminal": 8496,
      "mselves": 8497,
      "ĠAMD": 8498,
      "anted": 8499,
      "Ġrouter": 8500,
      "category": 8501,
      "ira": 8502,
      "bug": 8503,
      "ovie": 8504,
      "Ġcategories": 8505,
      "ĠUsed": 8506,
      "VAL": 8507,
      "Ġfraction": 8508,
      "Parser": 8509,
      "ĠCard": 8510,
      ".state": 8511,
      "Autom": 8512,
      "Ġ\"${": 8513,
      "udget": 8514,
      "icky": 8515,
      "?.": 8516,
      "]+": 8517,
      "\\t": 8518,
      "rets": 8519,
      "Ġtriangle": 8520,
      "Ġten": 8521,
      "_model": 8522,
      "raphics": 8523,
      "Ġincreases": 8524,
      "arc": 8525,
      "eces": 8526,
      "Ġap": 8527,
      "ubuntu": 8528,
      "Ġpropag": 8529,
      "usters": 8530,
      "Ġpotentially": 8531,
      "Ġredund": 8532,
      "ĠBlock": 8533,
      "UC": 8534,
      "Ġfacts": 8535,
      "Enabled": 8536,
      "_table": 8537,
      ".Set": 8538,
      "ista": 8539,
      "avers": 8540,
      "Ġsender": 8541,
      "Ġbroad": 8542,
      "¦Ĥ": 8543,
      "ventory": 8544,
      "real": 8545,
      ".web": 8546,
      "Trace": 8547,
      "Ġhandled": 8548,
      "ĠThus": 8549,
      "Ġthemselves": 8550,
      "Ġsales": 8551,
      "Ġmaterials": 8552,
      "ificates": 8553,
      "window": 8554,
      "Ġded": 8555,
      "/wiki": 8556,
      "ALSE": 8557,
      "za": 8558,
      "ĠCommit": 8559,
      "Ġtranslation": 8560,
      "CRE": 8561,
      "ĠPackage": 8562,
      "{M": 8563,
      "NAME": 8564,
      "=\"../../../../": 8565,
      ".close": 8566,
      "-only": 8567,
      "Ġaren": 8568,
      "Why": 8569,
      "Nav": 8570,
      "Ġthreshold": 8571,
      ".toString": 8572,
      "Ġreasons": 8573,
      "ĠAdding": 8574,
      "Ġaccounts": 8575,
      "Ġsignature": 8576,
      "Ġdetermined": 8577,
      "Ġassess": 8578,
      "Offset": 8579,
      "Ġps": 8580,
      "ĠĠĉ": 8581,
      "Tab": 8582,
      "Ġscre": 8583,
      "åĪĨ": 8584,
      ".pl": 8585,
      "ä¾": 8586,
      "\\pi": 8587,
      "Ġduration": 8588,
      "Ġextended": 8589,
      "-icon": 8590,
      "Ġenables": 8591,
      "Timeout": 8592,
      "æĸ¹": 8593,
      "ĠDeveloper": 8594,
      "osp": 8595,
      "Ġserialization": 8596,
      "{b": 8597,
      "May": 8598,
      "Ġviol": 8599,
      "ellig": 8600,
      "Ġplaced": 8601,
      "marks": 8602,
      "ĉbreak": 8603,
      "Ġdefines": 8604,
      ".eclipse": 8605,
      "Ġdecisions": 8606,
      "Ġconditional": 8607,
      "ĠPR": 8608,
      "esome": 8609,
      "PP": 8610,
      "Anal": 8611,
      "Ġpixel": 8612,
      "Ġperforming": 8613,
      "Ġsell": 8614,
      "Ġmigr": 8615,
      "-per": 8616,
      "VID": 8617,
      "MD": 8618,
      "Translate": 8619,
      "ĠWed": 8620,
      "Ġwish": 8621,
      "å¯¹": 8622,
      "Ġlazy": 8623,
      "grid": 8624,
      "ĠBalancing": 8625,
      "mac": 8626,
      "fn": 8627,
      "dom": 8628,
      ".edu": 8629,
      "ensh": 8630,
      "icip": 8631,
      "Ġsymbols": 8632,
      "è½": 8633,
      "Ġlocations": 8634,
      "Ġvertical": 8635,
      "rown": 8636,
      "ading": 8637,
      "Given": 8638,
      "Perm": 8639,
      "{c": 8640,
      "ìĿ´": 8641,
      "Ġpurposes": 8642,
      "ĠMaster": 8643,
      "ades": 8644,
      "region": 8645,
      ":/": 8646,
      "ĠAC": 8647,
      "anned": 8648,
      "iply": 8649,
      "serve": 8650,
      "(F": 8651,
      "ĠAdapt": 8652,
      "ispatch": 8653,
      "Ġwasn": 8654,
      "Ġreviews": 8655,
      "Expl": 8656,
      "rollers": 8657,
      "Ġtips": 8658,
      "mediate": 8659,
      "ÙĨ": 8660,
      "Ġdimensions": 8661,
      "Ġsusp": 8662,
      "Ġinterrupt": 8663,
      "ÐµÑĤ": 8664,
      "],[": 8665,
      ".right": 8666,
      "Ġinteractive": 8667,
      "ĠCollection": 8668,
      "Ġdecom": 8669,
      "vs": 8670,
      "linear": 8671,
      "Ġthroughout": 8672,
      "ĠTry": 8673,
      "Ġip": 8674,
      "kins": 8675,
      "Role": 8676,
      "Under": 8677,
      "Ġdeath": 8678,
      "Ġpointers": 8679,
      "IGHT": 8680,
      "_cast": 8681,
      ",b": 8682,
      ".de": 8683,
      "ãģ®": 8684,
      "pass": 8685,
      "ief": 8686,
      "prop": 8687,
      "Le": 8688,
      "HTTP": 8689,
      "Ġconsists": 8690,
      "antum": 8691,
      "ETH": 8692,
      "gence": 8693,
      "Ġdestination": 8694,
      "Ġimprovement": 8695,
      "Ġweights": 8696,
      "Ġ\"\";": 8697,
      "Ġdecided": 8698,
      ":'": 8699,
      "sort": 8700,
      "gm": 8701,
      "Channel": 8702,
      "Ġillustr": 8703,
      "mathfrak": 8704,
      "ĠSSH": 8705,
      "-dimensional": 8706,
      "Â°": 8707,
      "Ġrestore": 8708,
      "Ġmetric": 8709,
      "Ġwar": 8710,
      "Ġopening": 8711,
      "<img": 8712,
      "ĠCOM": 8713,
      "(err": 8714,
      "Some": 8715,
      "ĠBig": 8716,
      "eer": 8717,
      ".val": 8718,
      "ĠASP": 8719,
      "\"\"\"": 8720,
      "ĠConfigure": 8721,
      "Ġ}^{": 8722,
      "*a": 8723,
      "Ġsequences": 8724,
      "Ġscient": 8725,
      "(node": 8726,
      "edef": 8727,
      "Bit": 8728,
      "Transaction": 8729,
      "Ġpen": 8730,
      "_,": 8731,
      "\\|": 8732,
      "recated": 8733,
      "&&": 8734,
      "ĠField": 8735,
      "Package": 8736,
      "ansion": 8737,
      "æį®": 8738,
      "ercise": 8739,
      "king": 8740,
      "Ġdeleted": 8741,
      "enges": 8742,
      "crement": 8743,
      "ĠSingle": 8744,
      "Ġ:---": 8745,
      "ç¤": 8746,
      "å¸": 8747,
      "Ġvec": 8748,
      "æŃ": 8749,
      "INFO": 8750,
      "ĠSat": 8751,
      "lege": 8752,
      "eff": 8753,
      "Ġmaxim": 8754,
      "Ġplanning": 8755,
      "ĠCompar": 8756,
      "Ġtherm": 8757,
      "Help": 8758,
      ".annotation": 8759,
      "ĠPerm": 8760,
      "_EN": 8761,
      "Ġlearned": 8762,
      "Match": 8763,
      "Ð°ÑĤ": 8764,
      "_dict": 8765,
      "=t": 8766,
      "Ġrestructured": 8767,
      "éĻ": 8768,
      "icing": 8769,
      "ĠÐº": 8770,
      "your": 8771,
      "ositories": 8772,
      "Ġposted": 8773,
      "plet": 8774,
      "quot": 8775,
      "*b": 8776,
      "ĠReference": 8777,
      "wide": 8778,
      "ĠBY": 8779,
      "ĠDavid": 8780,
      "Ġprocessor": 8781,
      "Ġcm": 8782,
      "-lg": 8783,
      "Ġbrowsers": 8784,
      "ĠAL": 8785,
      "Ġestablish": 8786,
      "Ġleaks": 8787,
      "Ġattach": 8788,
      "VS": 8789,
      "{m": 8790,
      "Ġatomic": 8791,
      "Ġrouting": 8792,
      "Ġresponsible": 8793,
      "Op": 8794,
      "Ġgir": 8795,
      "loor": 8796,
      "(res": 8797,
      "SSL": 8798,
      ".List": 8799,
      "Ġparty": 8800,
      "Ġmyself": 8801,
      "know": 8802,
      "AST": 8803,
[...]
